/**
  ******************************************************************************
  * @file    mlp_predict_failure_data_params.c
  * @author  AST Embedded Analytics Research Platform
  * @date    2025-03-16T12:00:54+0100
  * @brief   AI Tool Automatic Code Generator for Embedded NN computing
  ******************************************************************************
  * Copyright (c) 2025 STMicroelectronics.
  * All rights reserved.
  *
  * This software is licensed under terms that can be found in the LICENSE file
  * in the root directory of this software component.
  * If no LICENSE file comes with this software, it is provided AS-IS.
  ******************************************************************************
  */

#include "mlp_predict_failure_data_params.h"


/**  Activations Section  ****************************************************/
ai_handle g_mlp_predict_failure_activations_table[1 + 2] = {
  AI_HANDLE_PTR(AI_MAGIC_MARKER),
  AI_HANDLE_PTR(NULL),
  AI_HANDLE_PTR(AI_MAGIC_MARKER),
};




/**  Weights Section  ********************************************************/
AI_ALIGNED(32)
const ai_u64 s_mlp_predict_failure_weights_array_u64[5635] = {
  0x3d85cffd3b07277fU, 0xbf4c28923e950754U, 0xbf069d92be4f946bU, 0x3e7059e2be3b0996U,
  0x3d619f57bf0f84a2U, 0xbe7dd40fbe27133cU, 0x3e31701b3e07a896U, 0xbe76a9d6be8bb639U,
  0xbe39c7e83c0bc360U, 0xbc8545a03eb890caU, 0xbe1f691a3ea667c8U, 0xbec5da413e7ef3bbU,
  0x3dab83b4beeddb8eU, 0xbe8ff4f03eb4c69cU, 0x3d6d2ab83e0968c8U, 0x3e60749ebe89989eU,
  0xbf52d6e93e660f46U, 0xbdb82b263e6249b1U, 0x3e12bc1ebc24b834U, 0x3d9c1afcbe5f4704U,
  0x3ec34da5bc78500dU, 0xbf32f1ea3e14eb54U, 0xbecda0f2bcca8de8U, 0x3de9d2f0be357a0dU,
  0x3e88117b3f70f158U, 0x3d733fadbe372644U, 0x3e5bc19e3e017a64U, 0xbe8c74ee3d34a5f7U,
  0xbc8e45a03df79220U, 0x3d42e4f0be00bf24U, 0xbdb70230be653009U, 0x3c872f50bd97c664U,
  0x3e3fedb4bd68d1c8U, 0xbec2d0e0be84ade6U, 0x3ebef3343e187994U, 0x3de5c3babed9a9c3U,
  0xbf3cc6743e849800U, 0x3e672100bedcd228U, 0xbdb57ede3ea861c0U, 0x3e4380443db74491U,
  0xbe348a21bd7b9f30U, 0x3ec4ce46be75b45eU, 0xbdfcd668bd721690U, 0xbeb3f40dbea16fdeU,
  0x3ebd85683ec53ef0U, 0xbea9d4f5beb2ac02U, 0xbe9fd454be2e52a2U, 0xbe9ede8d3e8958daU,
  0x3e2887923df8a37dU, 0x3df5b9073f1b94f9U, 0x3d6263f93e6e8c22U, 0x3ef5897d3e340b52U,
  0x3e9a9496bec1e16eU, 0xbebeeea03e9334bcU, 0xbea15b923e450328U, 0xbe907f06be25b9caU,
  0x3e2142acbeb5fc55U, 0xbeca03303db49fb4U, 0x3dcf57033e2f18b3U, 0x3d4b73fb3f4384e9U,
  0x3e7a103c3dd5ee98U, 0x3e5ef734be87e15bU, 0xbe166ec63e914c90U, 0xbe56ee32be1f1ef4U,
  0xbd7f7570be25b36bU, 0x3db980b9be567879U, 0xbe99d5c8bb1ac41eU, 0xbdf05b303ea667aeU,
  0xbecbf066beb68b60U, 0x3e16fe703d091e50U, 0x3eca126ebe56bf1bU, 0x3c06bf80be8464e0U,
  0xbed9a5ddbe4a579dU, 0x3e2fded83de8e05cU, 0x3e860824bdbc3789U, 0xbe854958be642f5cU,
  0x3f24a1843e0af31eU, 0x3d2d12a8be94f87dU, 0xbe6e646cbeb4d73cU, 0x3dae816c3e5f8060U,
  0xbdde1a54bd708bd7U, 0xbdf6487dU, 0xbd311522U, 0xbe4df02fbdd5efbeU,
  0x3c0b8e2bbcd8dfc7U, 0xbdeea7c0U, 0x0U, 0xbc5bfb6ebd8eec9bU,
  0x0U, 0xbd0cbda300000000U, 0xbd51def9U, 0xbd6b7f9500000000U,
  0x0U, 0xbd935167U, 0xbe0ef44f00000000U, 0xbd82aed2U,
  0xbb949280bce45640U, 0xbdaca2b83e1aae64U, 0x3e2d081cbe322d70U, 0x3cdb81203e3a705cU,
  0xbe7d6968be3f64d4U, 0x3c7d3a00be174a14U, 0x3d46ad503e3e05b4U, 0xbd28cec0bd893138U,
  0xbd604950be561ff4U, 0xbda41a783e40d0b4U, 0x3cbc93603d9829b8U, 0x3e4b34203e6b711cU,
  0xbc1b6c00be2efe74U, 0xbdc70ec83e17a6ccU, 0x3ceff8a0be159f90U, 0x3dd61c583db81738U,
  0xbe24f733bd21e399U, 0xbc1cd4803e1bc595U, 0x3cb153603dbec1a0U, 0xbcde4b58be165453U,
  0x3eb513ddbe62cf02U, 0x3e272430bab450e6U, 0x3d850f683e53c040U, 0xbc96d3b03d7230efU,
  0x3dca9a203dff7ee0U, 0xbc2d08ac3e12478cU, 0x3e500ea43dd9b1dfU, 0xbd80d1873e56394cU,
  0x3c3c30c0bdc73990U, 0xbe6836343ddebd0aU, 0x3e1dfce2be210c44U, 0x3e4a4d183ec82db5U,
  0xbdf337203d27b320U, 0x3d6d9760bdf25948U, 0xbe21ac44be314614U, 0x3d14a4d0bdaff8d0U,
  0x3d4832903ddcc340U, 0xbe787834be7f50e4U, 0x3e36f2f4bc8d26a0U, 0x3e233c7cbe370d8cU,
  0xbe2403603e3f2474U, 0x3d507a70be3648acU, 0x3d68ea103e5b5804U, 0xbd9172683d602e50U,
  0x3bcfbd00bdda2aa8U, 0xbe7ea0743de31088U, 0xbe049de4be4b3eccU, 0xbce8dc00be2162acU,
  0xbd8b0c78be195be8U, 0x3e238e543dbf7bb0U, 0x3ddeda98be30c7a8U, 0xbd8e7770bb1a2800U,
  0xbe6ba7d4be2b7fecU, 0x3e4c18903cc588a0U, 0x3e1d7d083de40858U, 0x3e52ccdcbe1f5788U,
  0x3dd594e83db896b8U, 0xbdf0f9403e64fd8cU, 0xbdaeeb803a6ce400U, 0xbe12012cbe5eff14U,
  0xbd8a58f03e09787cU, 0xbdbe1e183e6744a0U, 0x3c5294c03e479558U, 0x3e0d16ecbda78060U,
  0xbe1de31c3e0f6684U, 0xbe2b5728bdd65510U, 0xbe40a760be389af8U, 0xbe799fb8bd088450U,
  0xbe2d7b103e6cce14U, 0x3e17481c3e304ea8U, 0x3dc1ba70ba4d9c00U, 0xbd0a6ad0bd882258U,
  0xbe012778bd8d6308U, 0xbd8bfb80bd2ba830U, 0xbe3c63b83d27bb10U, 0xbe128780be1ae64cU,
  0x3e1c3ff43d349bf0U, 0xbdb542783dddba70U, 0xbe6b8b60be650800U, 0xbe3a2e003e2e207cU,
  0xbd22ead0bd511480U, 0x3e7db9f0be57ac30U, 0xbe70a410bda4a808U, 0x3d4b58a0be743f3cU,
  0xbe6208183e05b9d0U, 0x3e22644cbe2e10d8U, 0x3b81b3003cc8b1a0U, 0x3da81b90bd1421f0U,
  0x3e4771ec3e6fbcc8U, 0xbc6c93803df5eba0U, 0xbe2e6144bd0aac00U, 0xbe462b103d16b540U,
  0xbe6ae4a8bc320900U, 0xbc342300be66a9e0U, 0x3e1001d0bc89ada0U, 0xbe1a49a43e7a3afcU,
  0x3d92b7c03dc42c70U, 0x3e6a56883dca4570U, 0xbdf3097039df4000U, 0xbe7855a4be51677cU,
  0x3dc2f5b8be0c67d8U, 0x3e57144c3e47ef68U, 0xbb278f003e19424cU, 0x3d7d87f0bde0e428U,
  0x3e55c1f83c995960U, 0x3e28bfd03e1043c8U, 0xbe24e0a4be7ce148U, 0x3a8ac200be4c6230U,
  0x3e05608c3e11f35cU, 0xbdd06e503cd39ca0U, 0xbc67b9c0be0d810cU, 0x3e5ecb74be699f88U,
  0xbc7856823e27ed51U, 0x3e6d4f743d672e3fU, 0x3e101ea8bde139adU, 0x3ddb69b4be2c8724U,
  0xbe559a3d3e10fbc3U, 0xbe180ad0bdd91c51U, 0x3e7b1b88be49ed14U, 0xbd8f70f53def3482U,
  0xbe250e883df49280U, 0x3e03cd9dbe4c323cU, 0x3c6c1b803db0d84fU, 0xbda2dc4f3cb0a280U,
  0x3e3005a43d832848U, 0x3e5f07e8bec22f6bU, 0xbe97fa1e3ca2eb40U, 0x3cad0940bda31274U,
  0xbca5b7c03e1366b0U, 0xbe1160fc3e24bab8U, 0x3e4ff63cbe4cf2fcU, 0xbe1d787c3e217648U,
  0x3e35603c3d338cf0U, 0x3dab99d0be69384cU, 0x3e39d8b83d5eb730U, 0x3d588e903dce5070U,
  0xbe70a328bc356b00U, 0xbe4725903e0a6650U, 0x3e2ea5b8bdf841d0U, 0x3e63e6d03e587090U,
  0xbd9119b8bcb26840U, 0x3e6f790c3e24fa60U, 0x3b471c00bd634940U, 0x3d9e4f88be0ec114U,
  0xbe0e6018be13a570U, 0xbd9f4648bbd0c180U, 0x3d990240be6ea0e4U, 0xbe5b9e603dafdcc0U,
  0xbde146d0bc7c8400U, 0xbe440934bca00180U, 0x3dadd3003e57c0ecU, 0x3e3ec348be111264U,
  0x3e2a286c3e38cc9cU, 0xbe3bec44bcdac500U, 0xbe16d5843e624e18U, 0xbe12bc943cbed100U,
  0x3df067c8bc9892e0U, 0x3e1fee2c3e383464U, 0x3de22ac83d8c29f0U, 0xbe46e618be3fc428U,
  0x3e20643dbe8fa3a4U, 0x3cf08260bd4a8a3cU, 0xbdf0ff903d8dcce1U, 0xbdae851f3b41f707U,
  0xbedc54b73dfed78aU, 0x3e08f944bdb111b6U, 0xbd804a30be2fe030U, 0xbe0617eebc747805U,
  0x3e33c6d8be60fa8cU, 0x3df08b55bd9e0328U, 0x3e3810a03dd5b93bU, 0x3b91a9f93e706588U,
  0x3e5473b8be7b5fb0U, 0x3e608eacbe9276e0U, 0x3e0967bf3c5938c0U, 0xbe49bd3c3d09016aU,
  0xbe70ee9cbd8124fcU, 0x3dbc01883e06ecd7U, 0x3e476a50bd6beb03U, 0xbd12ff3ebe04ffdbU,
  0xbd3a2e613e42874eU, 0x3d460990be8eccedU, 0x3e7817303d5b9c60U, 0xbe4692d33cb51122U,
  0xbd9de158bdfb2f98U, 0x3e1b366e3de088e0U, 0xbe7abfd43e4940b9U, 0x3dba2095be047978U,
  0xbd294550bce83f20U, 0xbd3076d0be3a0977U, 0x3d6a7c1e3ccbf340U, 0x3e2337f4be5760f9U,
  0x3d6ab5203e482532U, 0xbd4bfa00be087471U, 0x3da8ef48be3419a1U, 0x3d3c9c6d3e319930U,
  0xbe95eca9bdbbd158U, 0x3daec6d8bd9af6faU, 0xbcc4efa03e04ce00U, 0xbe75d27d3d60caa5U,
  0x3d4e3c40bdaa23e8U, 0x3a7529a23d6121a0U, 0xbc0144403d7bdd3eU, 0xbdf180ae3e68f974U,
  0x3ce112c0bd8abcc8U, 0x3e4c80f4be19ec71U, 0xbe565cab3e3261a0U, 0xbd8f75c0bd8eff9dU,
  0xbc46c763be1718caU, 0xbe625338ba0f9dc2U, 0x3e56fbdc3c9b1b91U, 0x3dd6bceb3e80f51aU,
  0x3e9e6e643e09c44cU, 0x3c9bd420bd513611U, 0x3e28cea0be7083e0U, 0xbd1c42c1be8b1ab9U,
  0x3e712778be6eb364U, 0x3d56dba7bc564780U, 0xbddbd180be874cdfU, 0xbddbea813d616270U,
  0xbc0cd2403dda0c70U, 0xbe1ecd783f17e839U, 0x3e58f3b0bdbd7698U, 0x3e5242f4be2bdab6U,
  0xbdcba3d8bd697190U, 0xbdaf84f8be6c1facU, 0x3e12622cbe363474U, 0xbe7d09b8be1a5544U,
  0xbe721d58bd3d7350U, 0x3e3175683e5ec2c4U, 0xbe3e5ae4bd6c93c0U, 0x3e3a64acbdd03598U,
  0x3d8d35e0be563fc0U, 0x3de8c8783d2bc120U, 0xbd9b4be03dbdeb90U, 0x3d95b698bd6cc200U,
  0x3dfdbdb0bd020090U, 0x3e609e643d26a220U, 0x3d1f9b203cb114e0U, 0x3e761464be0064fcU,
  0x3d1d23c03dfe1b29U, 0xbe4a8ec4bd8b5ffeU, 0xbc2634c03db06517U, 0x3e4b7846be3721fdU,
  0xbe3736113d301076U, 0xbdbbfc70be1197feU, 0xbe520cf43e1106b4U, 0x3e05ef07be450b84U,
  0x3e7d3c54be2bdb8cU, 0x3d6cb5f5bcdeca40U, 0x3e597310bd82cca7U, 0x3d6106803e4ec358U,
  0xbe369d84be524a84U, 0xbe3c76dcbdc46510U, 0x3e011a1ebe18ecdcU, 0xbdbde760bdff9f58U,
  0xbe078dd83e2fa5d0U, 0x3bff4d80bdaca053U, 0x3d7983c0bddb7d02U, 0xbd9f2b363d6ec5ebU,
  0xbe876d12bcc7a8a6U, 0x3e5e12883e0c47caU, 0x3e045d683c07a100U, 0xbe58709f3e012c2bU,
  0x3e56259cbe569940U, 0xbe0a7635bc8e7a80U, 0x3ddfb7f8bd89f57aU, 0x3b5abc37be1623b4U,
  0xbda33cf8be2e1e00U, 0x3c919bc03e075a11U, 0x3d2e50dabe1e03e4U, 0x3e01d870bda39d78U,
  0xbe33934cbe48e990U, 0x3e3c27e03dc81cb0U, 0xbdcc7870bcab02e0U, 0xbd1e9d903d26ef30U,
  0x3cc8c880be5477f0U, 0xbe1dfffcbdc77cd0U, 0x3d75c7003e454dbcU, 0xbd0b90203dee8078U,
  0xbe3e6a00bb68ea00U, 0x3dc70e08b9a68800U, 0x3d790ce0bd086190U, 0xbcf57f203e74f5c8U,
  0xbdf24418be402fbcU, 0x3d9502603e630d8cU, 0xbe44dc5cbe64a4ccU, 0x3e16ff1cbe313dbcU,
  0xbe13d5bf3c843c11U, 0x3d5809d03e34dd40U, 0xbe0b85683e28e88fU, 0xbd8c0b3ebe8cd7b4U,
  0x3eabbb07be44abb2U, 0x3d146ff03e3ec2f4U, 0xbe518854be1fcf70U, 0x3e0c8a6a3cc8e654U,
  0xbde902f03db6f800U, 0xbd208c40be192154U, 0xbe2edb883e4830d1U, 0x3e92542cbe3cec10U,
  0x3e76dbac3cc8e8c0U, 0xbe006f4cbdcdb529U, 0xbe357924bd9e4850U, 0x3e7fcc383e926c8bU,
  0x3e1329e7bde3872cU, 0x3bad71803dec61abU, 0x3da8a6003e23815aU, 0x3d1ca2a73d8d13ebU,
  0xbe782c0f3e05bd86U, 0xbe1704643d657be7U, 0x3e292b60bd30a190U, 0xbe232189be57d4e5U,
  0xbe427e443e3efa24U, 0xbe8fab0b3e640270U, 0x3e0f0d883cf98a73U, 0x3cfc54c53d95b2c8U,
  0x3e15f854be4b2d44U, 0x3e046efc3de05050U, 0x3d92780e3d09a1d0U, 0x3e17840c3e3470d2U,
  0x3debe2c63ca26d85U, 0xbdbf69c0be6ec798U, 0xbe320cb4bb98c9a0U, 0xbe04e8883d8f66eaU,
  0x3dcb854d3de0e092U, 0x3e7f8c4c3d503274U, 0x3d60dc303e695800U, 0x3dde2bbabe7f3fc3U,
  0x3d28c4a03e0fd7e8U, 0xbe39e2b4bdd4d1d8U, 0xbc8717c0bdb13c09U, 0x3d245bfb3dd80378U,
  0x3e5b1f00be761db0U, 0x3e6a10c4be0ad53cU, 0xbc35153ebe433694U, 0xbe00c80c3d824052U,
  0x3dbd4bd5bc190307U, 0x3da240983d9d8057U, 0xbafc0a00bccd5da3U, 0xbdf28e7e3d8d0f6bU,
  0xbd2486f13e3e29daU, 0x3e618ea4be80a652U, 0x3e5f2078bd2f61d0U, 0x3e482300be864175U,
  0x3df7dac0bde8e980U, 0xbe6720413e22ae4cU, 0x3dde69503dcf587bU, 0x3e1e84b8bdaeec30U,
  0xbd921150bd4f30b0U, 0xbe14ceb4bea99efaU, 0x3ca1d0a93d7e05d0U, 0xbe7c3ae83dff6ac2U,
  0x3e21c4dabe88cce7U, 0xbdd0efa83da21ba5U, 0xbde9c2303c149f00U, 0x3d9ab3d3bd58aed7U,
  0x3e8cf895be1b576aU, 0x3d994d583e6bb96fU, 0xbd514c803e507240U, 0x3dc6a597bd5b780bU,
  0x3e76ceb0bd9d6b68U, 0x3e48b5423caa2280U, 0xbc240340be03ba2eU, 0x3da09b91be2e73ccU,
  0xbdbb07c0be4aee84U, 0xbd8330183ef9c67aU, 0x3e830e84bcbb70c0U, 0x3dd72378bd691b8aU,
  0xbd021422bc4bbec9U, 0xbe0971c43e301d7fU, 0xbe2a6d10bdae73c4U, 0x3b862a1dbe4ddc00U,
  0x3ee6bd603c6835e3U, 0x3e1584443d66981dU, 0xbe5ac3943e045e88U, 0xbe8ee48fba8a6254U,
  0xbe1ac668bd401a40U, 0xbce65895be3b6f58U, 0x3dd1dfe03e0a9f0bU, 0x3d32fdd3bdcbd250U,
  0x3e3a48dcbe04e3bcU, 0x3e0d9d383db605d3U, 0x3e098e3bbd82ec18U, 0xbded42e03e9d0815U,
  0xbebae0ecbe86d067U, 0x3df87c48be407134U, 0xbd0837603e2af922U, 0xbd90243e3db95fccU,
  0x3e404caa3e20f9bdU, 0x3e020424bdf53dd8U, 0x3cef9ac03e1cb95cU, 0x3d4d13eebe44cefeU,
  0x3e5b02303e11ef74U, 0x3d6aa3bc3e383f3cU, 0x3d0869003e42b521U, 0x3e648e2dbbc7cd80U,
  0xbca61720be3d01b8U, 0x3c942fc0be3a6b2eU, 0xbe6260503d0bece0U, 0xbe6c26003e934549U,
  0x3e104f57bda664b7U, 0x3d8a2cb0be42e141U, 0x3e5b04fcbe25437bU, 0x3dc76dcf3dc5f5b4U,
  0x3dee94f5bd682fe0U, 0xbdb234d03df0038cU, 0x3e70c1fcbdb5e2c0U, 0x3e04034e3e434b4bU,
  0x3d7bf8d03e3ae3b8U, 0x3e085a573d9bad80U, 0x3e5703a0be2679c3U, 0xbe8108563dc97a60U,
  0xbbe55200be63e464U, 0x3e4031343e584aa4U, 0xbe484eab3da31840U, 0x3dc01df8bd8cb0efU,
  0xbd8eb77bbd6ce66dU, 0xbe5e919cbe27dd4bU, 0xbda009903e024d9cU, 0xbe164d53be1e0d4fU,
  0xbd22b8343e2f612aU, 0x3b644200bd0b7194U, 0xbe4930743e63920cU, 0x3e3cfe8abdda815bU,
  0xbdb512e83e037e24U, 0xbe7ddfe43e4435a0U, 0xbe4cf1783dcc92ecU, 0xbe0103843d516230U,
  0x3db07ad83e4510d8U, 0x3e7ac9743e204f3cU, 0xbe7e2170bd23cb50U, 0xbe67399cbe1ed9c6U,
  0x3e285d38be227d58U, 0x3d9005703de11370U, 0x3c7a5940be3f0680U, 0xbe4a64a03e76e458U,
  0x3e17fc2c3ceb7c40U, 0x3e23c6b8bd743150U, 0x3d4516003dff87c0U, 0xbc76e6803df19620U,
  0x3dde3c08bde31f38U, 0xbd9e5ea0be1b5380U, 0xbe09ab50be79f044U, 0xbda0b4c03bf1be00U,
  0xbd8ec788be3c359cU, 0xbdf68d703df3c9b8U, 0xbe0b6ee0bdbf6660U, 0x3e7447743db64948U,
  0xbe03933bbd9dd1c4U, 0x3e5bb4903d6fed78U, 0x3e076a483d9260e1U, 0xbdddf9f6be865b23U,
  0x3dd5375dbe69ecfdU, 0xbe06df4c3e4bc623U, 0xbe17dc843e442a9cU, 0xbe0b7cbdbc5f1edeU,
  0x3e193244bb119600U, 0x3e3d5cd8be53b2c8U, 0x3e1c3ed43db94507U, 0xbd2149c33dd38f20U,
  0x3e4e7d003d9086c0U, 0x3da76dd8be3e07e2U, 0x3e4105a2bd98ba18U, 0x3e35b9983e04893eU,
  0x3e03912cbe8c5667U, 0xbde50180bdc32647U, 0xbb5be100bc37a32dU, 0x3e2214733e3c8413U,
  0x3e7f2059be82273cU, 0xbe440db0be0a4718U, 0x3ddb6030be693e48U, 0x3e1a6b59bde7dc8bU,
  0xbd880fb8be400b18U, 0x3e20190e3e5007a4U, 0xbd8061c83e668a01U, 0x3e2f1a0dbe14a00cU,
  0xbc993ae03e0654e0U, 0xbd42d7103e93cc3bU, 0xbe5b0aec3e3ad9d0U, 0xbe053c2c3e087be0U,
  0x3e25e054be534265U, 0x3e16b8983de1c625U, 0xbe12cf6c3e584452U, 0xbddd0879be5b3399U,
  0x3e355e5e3deba28eU, 0xbe3914783d3c4001U, 0x3e481ed8be3ad1dcU, 0x3e000b843c151c0bU,
  0xbd12dfb0bbabb780U, 0xbe066469be1e08a4U, 0xbde058d03e1a17bdU, 0xbe2804c13e349d8cU,
  0xbdf3ec68be249a0cU, 0x3d6394d03e497fcbU, 0xbe106f28bd95add0U, 0xbd9c1e583c2cb216U,
  0x3cb241543decda3aU, 0xbe337ed4bd8dc29bU, 0xbdfcc1483e490d83U, 0x39426dd83e3970e3U,
  0xbe0466083db4aa2fU, 0xbe08ee18bdbc0697U, 0xbe7d8c60bd886cc0U, 0xbdc664443e18f72bU,
  0xbe5edcdcbc8db260U, 0xbeaf2cd3bd135a40U, 0xbe181f583cd74682U, 0xbeaabfdcbe630c14U,
  0xbe46e4e03e4629ecU, 0x3d90d5a0bd7ed082U, 0xbd948a22bd8d77c8U, 0x3de51f80be89d767U,
  0x3cbbb3993e784767U, 0xbde266483d1a417bU, 0xbe3c2ea43e676676U, 0x3cb2a2e0be5e01f4U,
  0xbec4ee20be405e45U, 0xbdb719b0bcd76f0aU, 0xbdd6baf8be315564U, 0xbddb5e243ca59b71U,
  0x3e64dbc43e6a14c4U, 0x3a88d86b3d30e200U, 0xbd3f3fd03d60fb58U, 0x3d63d325be1a97d0U,
  0x3ddc65383dffe180U, 0xbe74c09cbe657f91U, 0xbd558b90be255e88U, 0x3e146f103d50d81fU,
  0x3e2efd33be81dc27U, 0x3df110f83e1bee91U, 0xbdd769f83e60c371U, 0xbdff6e1fbc1bb72fU,
  0x3d12fbb93e3ea09dU, 0xbd67b2003dcc3009U, 0x3e16c0e4bdbf6f98U, 0xbe50cc9ebe5e4922U,
  0xbdd06b183e792be4U, 0xbde5245fbdd944b0U, 0xbe619704be36bc22U, 0x3df0846ebe563940U,
  0xbe07a7e83d0a8600U, 0x3e7be6ecbd3f833bU, 0x3d93534dbde1b938U, 0x3e5982f03e2f5324U,
  0xbd349ed73e283bdfU, 0xbe657b843df52010U, 0xbdba76903dd15863U, 0x3d18cc883dd9134dU,
  0xbe1423e13df09fd5U, 0xbe372988be7f7d30U, 0x3e39c2c8be675ffcU, 0x3df96f7b3e3b67baU,
  0xbe5ea124be4a8758U, 0xbe892c753e71b138U, 0xbdeb8150be5446a2U, 0xbe838aac3e4495bcU,
  0x3d8c5c783d9a0738U, 0xbe7f29bcbe2fca24U, 0xbe4bd657bd8e75c0U, 0x3d372db0be2cf6d1U,
  0xbe0551ccbe442590U, 0xbd5cf2803e487343U, 0xbe38d0d0ba9437a5U, 0xbc628b993e2b971eU,
  0xbd0b5ec9bd5af6b0U, 0xbe561c843e3992b0U, 0xbadd4e003c6e2740U, 0xbe79ca503e89f0ecU,
  0x3d44c6f0bd32cee0U, 0xbe14ecabbe60f918U, 0x3e7f6b9cbe151832U, 0x3e2b32523e198874U,
  0xbdd618e8be099d00U, 0x3e4885b43ef7acd7U, 0x3e8242b83e3aa3b8U, 0xbd7285c03e4494acU,
  0xbe2bc9323e4d0feaU, 0xbe3421b8be3f3b77U, 0xbe7d8ce8b7f33ff0U, 0xbdd1dea6be2e6e9aU,
  0x3e73812cbe81d524U, 0x3e2f8e70bdd14b01U, 0xbde294f0be44cc48U, 0xbe2d31f1be815b2dU,
  0x3e1f9ba4be5c7944U, 0xbe1b6236be04ea80U, 0x3e1f37043e317b01U, 0x3e31a875bdb85940U,
  0x3e5cee58be757ed0U, 0x3e77ef6cbdcb99ccU, 0x3dcc7fa23e59a288U, 0x3dc785b03dac8d7fU,
  0xbc46d153bd84469aU, 0xbe343fd43e51ae6bU, 0xbd4aa440be742468U, 0xbdc2db0c3e2c7d3cU,
  0xbe1fc86c3e36141fU, 0xbe1c13a03c01a307U, 0xbe1af3003e1e1a44U, 0xbe81e12a3e219e8aU,
  0xbde001703e7af8acU, 0xbe66c39d3e682e28U, 0x3e5898803dec1c85U, 0xbe7e3083bd2a2080U,
  0x3e77ae04bad73e00U, 0x3bb607803d14d9f6U, 0xbe47b77cbe772bf0U, 0x3d3b40d03e289003U,
  0x3e470708bde238c8U, 0xbe3a9bb8bd24f590U, 0xbd1243c0be5ddb3cU, 0x3e1ab28cbd054f70U,
  0xbe17b9f0bcf57e00U, 0x3e73adb03c94a7a0U, 0x3e2c9cd0be0a1748U, 0xbe4ec62cbe0701c0U,
  0x3e27eb243de8ac48U, 0x3befa0003e66fc40U, 0xbe1d0cac3c0c0e40U, 0x3e3737e0be74af94U,
  0xbe3d4d4c3d409fe0U, 0x3e745224be6a5040U, 0x3db227b83c1662c0U, 0x3d9387583e717e1cU,
  0x3e1580f0be59bf60U, 0xbd487790bd846210U, 0xbe3179403c99bca0U, 0xbe4c4ecc3c8cec00U,
  0xbde560d83ddd7538U, 0xbbd041803e3550c4U, 0xbe0349c83df4c790U, 0x3da4fdb83de3e9c0U,
  0xbde68a083e3a47b0U, 0xbd5cbdd03d706700U, 0xbe2d50b8be76d3e8U, 0xbe5dec983e338584U,
  0xbdcead78be631138U, 0xbe7aa7943de437c8U, 0xbdc38440bd93e740U, 0x3e49326c3c82e440U,
  0x3ce5f9403db0d520U, 0x3d5d3e70bdc71b78U, 0xbdb7f2983e000c28U, 0xbdfd46a03e732f9cU,
  0x3e1a5df4be1e31ecU, 0x3e25ea80bdd10868U, 0x3e24dbf8bd2cde00U, 0xbddfa548be702f3cU,
  0xbce854c0be542b24U, 0x3c9c8e203dc01758U, 0xbdee3778bd285cf0U, 0xbdcbffb83e461dd0U,
  0xbe476de43e2ee4a4U, 0xbb7dc200be607d14U, 0xbdc535f83c309e80U, 0x3e1507f8bd9e24b8U,
  0xbd9f4b00be794860U, 0x3cff6f203e18e298U, 0x3e5cdf1c3e12bc6cU, 0x3dda49803e5bd1e8U,
  0xbd7e5310bd8f5238U, 0xbd96b858be7b1c58U, 0xbe0c43d0be4d52d0U, 0x3e182614bdada368U,
  0xbe2b14443e749d54U, 0xbbb0fe003db3e118U, 0x3bd71100be0c6d30U, 0x3c22b5c0bd54cff0U,
  0xbd8a87b83d3052d0U, 0xbe3391103d20bfc0U, 0x3dcc6e38be421a04U, 0x3e5893683d259b40U,
  0xba7144a63dd6e670U, 0xbe4830c0be9a3c57U, 0x3e5ea1103e1176ebU, 0x3d2a20493e1a24cfU,
  0xbeb0893e3e45122dU, 0xbe03888cbe782825U, 0xbe2eeb64be547704U, 0xbc30ad0a3e1795e9U,
  0x3e1a2a083e7f35c0U, 0xbe2fd6273cffd3c0U, 0xbe13473c3c768b5cU, 0xbeb6e30abe3eb2b0U,
  0xbdcff8f8bde09ab0U, 0xbe491bd43db95db9U, 0xbe22cb343dea6070U, 0x3d82c438be40e884U,
  0xbe33694cbe1def94U, 0xbd219a40be51bcccU, 0x3e72ef18bdd0c0e8U, 0x3e0f2c14bdd71f70U,
  0xbe4af224be07b034U, 0xbe253aacbcda2d00U, 0x3db673e0bde08818U, 0x3d2c9fe0be2cd5d8U,
  0xbe089484bda2d528U, 0x3de6fe90be1f248cU, 0x3e2c7d0cbe191964U, 0xbcefe9203e214f44U,
  0xbe416894be2b4050U, 0x3d8c6940bda53bc0U, 0xbcd102403e6e9dd8U, 0x3dfd08a03e7407dcU,
  0x3b64da003e5bc034U, 0x3db27d103e17cfd0U, 0xbdc8f208bd90b3f0U, 0xbd5cc4103e06e8f0U,
  0x3c948180be120500U, 0x3e773e30be0ee7b4U, 0xbc460240bd1492a0U, 0xbdec9dd0be598c14U,
  0x3c65a7803e69f864U, 0xbe03c2c8bd414150U, 0xbe008e18bdc33970U, 0xbe3632b43d6b0af0U,
  0x3e5a95b83e1c523cU, 0xbdc65b08bde5b1e0U, 0xbe267914be4758c4U, 0x3e4c0ab4bcbf2ca0U,
  0x3dcf52b43e2037dcU, 0xbc4941003cfa03bdU, 0xbe488f64bd8aafc2U, 0xbe2bead43cf7947fU,
  0xbe74e72d3e377361U, 0xbe14f9f4bcdb4c17U, 0xbd9be8b0bda91c08U, 0x3dc50a643e49f64eU,
  0x3d2f29f03e1bb2ccU, 0xbd383c0ebe6fe9e8U, 0x3e6a3f8cbc6a10f7U, 0x3cc4f1073e1fffd0U,
  0xbe276f143dc66900U, 0xbe1a30403de833acU, 0xbe6841343e638d24U, 0x3e115d5cbeba7034U,
  0xbd29f608be4c4ee9U, 0x3e463890be802fecU, 0x3e01e7983d60fef3U, 0xbd904560bcfa63feU,
  0x3ea2d1cd3d2c76adU, 0xbd24d830bca5375fU, 0xbe3257d0be304d10U, 0x3e65fb72bc069a19U,
  0x3e09e16cbd4fbb30U, 0x3e3d4b0ebe4c5d94U, 0x3e453714bdd45d1cU, 0x3d9fe2ca3e78629cU,
  0xbd601d503e463624U, 0xbe0bc07c3e8c261cU, 0x3e2671ba3e3d8df8U, 0x3e760304be6ec4e5U,
  0x3dd2ecb0be57d550U, 0xbd730ab0be4ab810U, 0x3e1c11cc3e137a48U, 0x3cfd2ba0be6a4a24U,
  0x3d9672d0bd83ad50U, 0xbd3845703d45ee80U, 0x3e00f7a4be1816a4U, 0x3da2c1383db273b8U,
  0x3d79b2f03e794c20U, 0x3e717d043c745f00U, 0xbdb4cd70be4f4834U, 0x3d86f1f03e3cebe8U,
  0x3e4c4cf4bd843ab8U, 0x3d925ac0bdc007e0U, 0x3e010318bcf2a5e0U, 0x3e40f4c0be04487cU,
  0xbe2cfec03c899220U, 0x3de512e0be7f1ffcU, 0xbda3dfd8be374be0U, 0x3d6aec703b910880U,
  0xbc277fc03d8a8320U, 0x3e7cbabc3e5de150U, 0xbe104cfcbe466b14U, 0xbe37b1b0be6db588U,
  0x3e4b0ca43e6f3e40U, 0x3e4209643dbe5c90U, 0xbd4aa700bd65efa0U, 0xbe0a5bdc3d46ae60U,
  0xbe1aa0f03d3c5580U, 0xbe31dd9cbe2a2bccU, 0x3d8baf783e70d420U, 0xbe1d9c74be7f5e78U,
  0x3d9813db3deb0ef1U, 0x3e4bcdd43e926f4dU, 0x3e5c5d2cbe42c8ecU, 0xbe800f6e3d88ac94U,
  0xbd314e79be0e1dd7U, 0xbdca97e83e2540c1U, 0x3e3841c03e6f9a4cU, 0xbd2dc3873e283321U,
  0xbe7b68843db0fe98U, 0xbe1d63543e2e8fe0U, 0x3e2e58a43d7633beU, 0x3e1dd20fbda5ba38U,
  0x3d988990be2cd294U, 0xbda755a03d7a1126U, 0xbd8f9e7e3e1d2b8cU, 0xbe4e36b83e9d0730U,
  0xbe3469de3e0164a2U, 0xbe4abd5cbe757408U, 0x3da2fbb83db4fb65U, 0x3d9b19793e2abbebU,
  0x3a382e673e27664aU, 0x3b07a700bdc1f686U, 0xbdd86a50be579d6cU, 0x3db6fb443ceb519dU,
  0xbdf598a83e6916b8U, 0xbe9dc3d53d5ab050U, 0x3e2f2214be71725dU, 0x3dde7fe8be08e448U,
  0xbbbc28803e6e7464U, 0xbe6de2783d51ac3dU, 0xbe63fa4dbe3ed07cU, 0xbd388fb03d8d468cU,
  0x3e271dcdbe4cbeffU, 0x3d900d903c217203U, 0xbd2c4ae03e2cb5f3U, 0x3dc2d7963e0f46c5U,
  0x3e0b1763be2c14a5U, 0x3dbec870be0eeb9aU, 0x3e4919f43d9f28a0U, 0xbdf213d9be4e5e76U,
  0xbe075524bd8299b8U, 0xbe83aa113e011964U, 0x3e6f1580bd2a5365U, 0x3e43aef5be433354U,
  0x3df1b3f03dd83f20U, 0xbc6ad7c0be55c125U, 0x3e53b3fe3e297844U, 0x3e7e4f44be7795b7U,
  0x3b11405d3e26d99eU, 0x3e36afa03da17008U, 0xbd007ad0bd5b7dddU, 0xbe804f2bbe16f602U,
  0xbe0258a03d0976ddU, 0x3e1f6cd83dbac5aaU, 0x3e7869983da721f0U, 0xbcc8a53c3db42967U,
  0xbdfc83083e23fe98U, 0x3ce78210bd80bb10U, 0xbdeb1c203dda0ee6U, 0xbdf6376a3e0fd8b4U,
  0xbdf730603de77a88U, 0xbdb87620be9c0d03U, 0xbd558640be2689dcU, 0x3e443a28be3fdb93U,
  0xbe6505acbb031100U, 0x3e635adcbca5e6c0U, 0xbc136000be302d88U, 0xbe4e003c3e762338U,
  0xbe1883bc3e4b424cU, 0x3e0ae26cbe0a796cU, 0xbe12a4a4be1dda90U, 0x3d80d8183db37890U,
  0xbe3b5088be3dd500U, 0xbc5824c0bceb4f60U, 0xbd32d530be4ce714U, 0xbe3de5ecbd4cd860U,
  0x3e789c7c3c12c700U, 0x3e1c2e7c3e23b924U, 0xbdbd4f103e68f070U, 0x3e25b308bd874078U,
  0xbea7c323bdf7c455U, 0xbd5258103e66d082U, 0xbe0604d43e4b2ccdU, 0x3be40d953db03372U,
  0xbd4f6df4bdc41a6fU, 0xbde73a203d76156fU, 0x3e3edf5cbe1a0b18U, 0x3e5413823cada280U,
  0x3e1033803e59ac2cU, 0xbcac94d53d846818U, 0x3dc54b403e6235b7U, 0x3d1111da3deb5e20U,
  0x3e2b4f6c3d9dc570U, 0xbe364eb0beb82da2U, 0xbe8689d93db09440U, 0xbe26f5503d5be65dU,
  0xbe6028c8be80ab19U, 0xbc0811c0be414d72U, 0x3e54ac943e444db4U, 0xbdc07f6fbe818345U,
  0xbe5c61353e0d9beeU, 0xbbd740803ce11abbU, 0xbe4c13583cdc22a0U, 0xbdd8eec83d93d523U,
  0x3e0ea310be09ddf0U, 0xbd79d6eabd1996d0U, 0x3d17eaa03bdd8e8dU, 0x3d85b8b5be3768dcU,
  0xb8976000bcf03dc0U, 0xbe4197183e6b3204U, 0xbde4d0673dd84358U, 0x3de7d1a83e1137faU,
  0xbe27684dbe0e927cU, 0x3b807a00bd0e7346U, 0x3e55fbc43da2163cU, 0x3db32721be4a4817U,
  0xbe862b193e7c4b4bU, 0xbe63b1543ddba07dU, 0xbe2a6b28be1e3ffcU, 0x3e0fdb00bde47da9U,
  0x3dac95703e084ba8U, 0xbe88976bbdbb1d50U, 0x3c4117003e70ea6cU, 0x3e03d3963e4f8170U,
  0x3e106d7c3d42e420U, 0xbe7d4114be002dc0U, 0x3d4a5ae9bd6a1d40U, 0xbe769d18beaee71eU,
  0xbe0aa680bd420f00U, 0xbdb52b503e34c39cU, 0x3e367630bdb9c0d8U, 0xbe1578f43d051780U,
  0x3dc46a18be422724U, 0xbe7650c0be403254U, 0xbc251780be593058U, 0x3da55250bcaa9fc0U,
  0x3cc30ce03e2fa180U, 0x3d3ca0403db1cfb0U, 0xbe5bccd0bd376c20U, 0x3e58dcc8bdf95ac0U,
  0xbe795680bdaff400U, 0x3dd7d2e03dbeae38U, 0xbe15eb3c3c5744c0U, 0xbe7ee4d8bd007070U,
  0x3e539be4be5648e4U, 0x3d9dcc50bb2cd500U, 0x3df6c040be3bb7fcU, 0x3df851a8be427e50U,
  0xbe1f427c3e5a149cU, 0x3e0a7ec03b280c00U, 0xbe7efb0cbe6271f4U, 0x3e45f90cbe3d5154U,
  0xbe2f4c443dea3b28U, 0x3dcbc250be51e0fcU, 0x3e0b50343c5239c0U, 0x3cc03ee03cdcd960U,
  0x3dab2f80be2644b0U, 0x3e3bb8243c8d7c00U, 0xbd1829303e613c90U, 0x3ddd9400be5e425cU,
  0x3db4cd5a3e138f4bU, 0x3d1c17c03dd01188U, 0x3d9a0c30be37be3aU, 0xbe3002f4be0b7bf3U,
  0x3d46296e3d1294b5U, 0x3e23dd503e642ad5U, 0xbcf216803d374db0U, 0x3ddc9c4c3e58bd60U,
  0x3e19a4ac3dbb2da0U, 0x3e1362c03db8b590U, 0x3e1035d4be5e5ab9U, 0x3d9e7fcabe45eec8U,
  0xbe6af7883d998890U, 0x3dd9cdb0be39c268U, 0xbe2b82d6bcb34980U, 0x3d8ee2a8be4d2ddbU,
  0x3e6ede12be1f7825U, 0xbe4518883d334702U, 0x3e30f78cbe7c0f05U, 0x3e022f82bd9133fcU,
  0x3dd77470bdf30bd3U, 0x3da34270bc8985a6U, 0x3d41e9a03d0ee260U, 0xbe1401413e32a3f4U,
  0x3d383ce0be18fc58U, 0x3df404c53d83eb00U, 0xbe1ae3b83e3df22eU, 0x3e5f0b4fbdcbaf38U,
  0xbcd01a803dbc8330U, 0x3d239db03e882c1eU, 0x3d9080fdbd0df010U, 0xbdb318d83dae01e5U,
  0xbe29fcee3e2dfe70U, 0xbdeb8a803db14896U, 0x3e1df7e03d2c5c34U, 0x3e256b603e321fffU,
  0xbde3fc5c3bc8709eU, 0x3e0b7e2c3e24367fU, 0xbccc4ae03da877e0U, 0x3d437d1cbe23c272U,
  0xbd4a62f0bd8bda58U, 0xbe6988e63dd7a9c0U, 0xbdffa638be3f69d6U, 0xbe367196be50fec0U,
  0x3e353a08be3e0e60U, 0x3d748830be96a415U, 0x3e25c32c3e60207cU, 0xbe057510be10d327U,
  0x3e342734be543cf0U, 0x3e5ac9f4be7ca3e4U, 0xbe3d7af0be62dce4U, 0x3c0b7900bdd8c478U,
  0xbe48b6b0be57fad4U, 0xbaf6ec003e3e3520U, 0x3df6bc903d11ef60U, 0x3b6976003dc65eb8U,
  0x3e3e38403e4db7a8U, 0xbe2855cc3e2a766cU, 0xbe266f28be795be4U, 0x3d034940be606804U,
  0xbe7d24fcbe71bfd8U, 0x3db1e1a0be2aa2acU, 0x3e4f144c3e28c5e8U, 0xbe380af03db70d30U,
  0xbde941273e2a7ca2U, 0xbc9113203da204c3U, 0xbe04d980be5816e9U, 0x3dcc11963dad9afaU,
  0xbd8e5302bd971c39U, 0x3e700e08bd4b926aU, 0xbe4cf23cbe13e4e0U, 0xbe494bcfbe3c6f93U,
  0xbde5cf083e6be654U, 0x3e0c8acbbe4b9588U, 0x3d8e4598bdd6ce9eU, 0x3d3373ccbde34188U,
  0x3e6265ec3ded1e38U, 0xbdda95783e7909c1U, 0x3deb0cd5be67b0dcU, 0xbe3f83a03dd471a6U,
  0xbd9b269000000000U, 0x0U, 0x0U, 0xbccb3a2700000000U,
  0x0U, 0xbd342c4cbd6a9429U, 0xbd93b8a4bccd96b8U, 0xbd5f601c00000000U,
  0xbc3e96d8U, 0xbdbcbdcc3b3baf89U, 0xbd11f82bb8f01a70U, 0xbd5071a5bd51ccc3U,
  0xbc026ab43d8c2613U, 0xbcff211cU, 0xbd4629fcbceefe8eU, 0xbd18291bbc91e35cU,
  0xbbaf101b3b9054c6U, 0xbd09fc8abce8bb05U, 0xbc3167fabc930204U, 0x0U,
  0x0U, 0x3babddd1U, 0xbd887f2000000000U, 0x3b7ad829U,
  0xbdbb0f3000000000U, 0xbc0acffcbd78b75cU, 0xbd7bee12U, 0xbc1dde523cbae3b3U,
  0x3d6cc66dU, 0xbc96493a00000000U, 0xbd8e1497bdc401feU, 0xbda9148e00000000U,
  0xbe1b7c993c1f4800U, 0x3dc18dc63e1c1183U, 0x3e087e47be23554aU, 0xbcfb8f503db3bafaU,
  0xbd526bd4bdb8cbe5U, 0xbe2e71ea3e2cee9fU, 0xbc8056d8bd3596d4U, 0x3e0d7501bb386500U,
  0xbe33e71dbdfbfe8bU, 0xbdad99e2bd9f27bcU, 0xbda99724bc9f9138U, 0xbdb548e63e09a2a3U,
  0xbe1d09a9be16f970U, 0xbcfaf2103d1a8860U, 0x3dade4823e145f5bU, 0x3d0f71d43dc3e3b2U,
  0xbe2333373dd457beU, 0xbd0c6b303de89642U, 0x3d8761d23df905f2U, 0x3e2b4f17bcfb35f0U,
  0x3d02d1d03d9b82aeU, 0x3cd72078bdbe5030U, 0xbe1540643dc935aeU, 0xbe2cc04bbdb0a468U,
  0x3c5aaf10bd8c0f32U, 0xbd96621ebd7fe9c0U, 0xbde347273c853ed8U, 0x3dfdc4c6be0c925aU,
  0x3e11e60bbdbc6109U, 0xbe1fb681bc96c3e8U, 0xbe0dfb283d063858U, 0x3d8368f03d091bfcU,
  0x3e05deea3d92d78aU, 0x3ae81a003d0ad85cU, 0xbd4df90cbe0d1a5aU, 0xbd337e69bde40e62U,
  0xbc963d38bd8d3c07U, 0x3d49439b3d13a733U, 0xbd3ba8d7be027fc5U, 0x3d92daba3d01b988U,
  0xbe34bb1abb9904aaU, 0x3e18f6dcbaa2c2faU, 0xbe03a88f3e14a70dU, 0x3ebce336bb51f653U,
  0xbe267f8fbee4ba86U, 0xbe29740d3d8649fcU, 0x3cf84f423c1fd490U, 0xbdc00a203df91bd1U,
  0x3d2524c9bc706140U, 0x3e8667423e25d747U, 0x3e3a65c0bd9ed729U, 0xbe1a3d0dbd78b83aU,
  0xbd4bef803d524c10U, 0x3dd1982abc71cdb5U, 0x3e220d543da90f82U, 0xbc85bd50bd64a856U,
  0x3d663ee8be342a28U, 0x3e116c8dbdd5c272U, 0xbdb88bd6bb32a519U, 0x3daeeaaebe1abf31U,
  0x3d93b5c6be8bedc6U, 0xbd2193f23e13c167U, 0x3d6ea413bc12a318U, 0xbd101ee5be10bfebU,
  0xbe2388e5bd5961f8U, 0xbd69ed943e289893U, 0xbbb6e1e03e2df043U, 0xbe29619d3d62fadcU,
  0x3c9c66f0bd6d1c58U, 0xbe1c39df3e1b6a5fU, 0xbe02b0bfbe2ba803U, 0xbd82adc93e23d857U,
  0x3cf4d2c0bd2c8575U, 0x3c7f748fbd9c1c04U, 0x3d5f978c3da65696U, 0xbd5180c2bc912edcU,
  0xbd0a6a94bd265137U, 0xbda54041be0da215U, 0x3dd7d038bd78d283U, 0x3d7c1dd7be2255e6U,
  0xbe1bb353bd3e9bf6U, 0xbd72aaf43b7ffd53U, 0x3dc20a8fbe04ad30U, 0xbdf7b210be153a0dU,
  0xbd260634bc14f420U, 0xbe0bb48e3d95555fU, 0xbdd1608f3cca0940U, 0x3e05ac0bbe2747a2U,
  0xbcf21d62bcf4f6a8U, 0x3de4b29a3db74ea8U, 0xbc5c0220bd9a60a2U, 0x3dc1aa523d0fb7ccU,
  0xbd0669683e019ee6U, 0x3cc978003d4019d0U, 0xbc3a1c573db2ccceU, 0xbe1c67383c217ec0U,
  0x3d24b250bd943a5bU, 0xbceea9e83ccf8958U, 0x3dba712ebe0c8a06U, 0xbc427605be333eddU,
  0xbdea9c2b3dd80f32U, 0xbd6b4c603cc7d7a7U, 0xbdd909303d247816U, 0xbda1bf78bd83a9b4U,
  0x3d35b438be3685edU, 0xbd0276a03dfbc9cdU, 0x3e1743e53e0dc74dU, 0xbdb08938bd6d1cddU,
  0x3dbf615cbd615c4cU, 0xbe0371503ca53590U, 0x3de91fbc3e20aadcU, 0x3c6811f33e2af048U,
  0x3c2d61e4bdaa0b28U, 0xbe120b0b3e22aa49U, 0xbd6e9bd3bc85d1a8U, 0xbe087be73c3498f0U,
  0x3e29bb393d3afc08U, 0x3e2c02a1bdc293d6U, 0x3d4ccba83d142958U, 0x3e0c8cf9bddf6e62U,
  0xbc3236973e0a168dU, 0xbdfd683fbdb3e3e8U, 0xbcb1c3003d248ddeU, 0x3d9bfd5abd9069e4U,
  0xbdc445f8bcd63400U, 0xbd17a2c73e3053e9U, 0xbe27b72a3d302c84U, 0xbdc2f75ebdc079adU,
  0x3dc29e62be211d1bU, 0x3d2382dc3e0150b1U, 0xbdca695c3d2339dcU, 0xbe037b46be276032U,
  0x3e1c59913c843ce8U, 0xbe3fa0143de451c8U, 0xbe5aa6d2be1b89c9U, 0xbe6f961abd931668U,
  0x3d35d4d8bd97d22fU, 0xbd794f90bdef1ec9U, 0x3dea07babdffe078U, 0xbd6e7de4bcda0b81U,
  0x3ce392f83dbd3574U, 0xbd9ec0f6bd7c16daU, 0xbcd268f7be21f27aU, 0xbd7a9f82bcf694efU,
  0xbd5682043de59434U, 0x3c9fc7503e1283b1U, 0x3dd07ef4bdf3aa0bU, 0x3e1d85ed3de6df92U,
  0x3daa87fe3b09c940U, 0x3dd63f7ebd950ee1U, 0xbe3a03b33d979b7eU, 0xbd0ed5c43d6d3008U,
  0xbb45bf77be178118U, 0x3e314a5c3ddc8df8U, 0xbd80cf9d3e05947eU, 0x3e0f02e5bd2892dbU,
  0xbcfae5b0be4f7b9bU, 0xbc6092253d231030U, 0x3dedddfd3da8b535U, 0x3db47f2b3de1c46aU,
  0xbd1194b73d8b3a72U, 0x3d42bce4be1e488eU, 0xbe0af63c3e315f27U, 0xbc629e673e1657e3U,
  0x3dd2b14a3e184e91U, 0xbd2800383dc79e82U, 0x3db2ecddba99cc96U, 0x3da6fd88be077cb4U,
  0xbdb0f3b6bdad0a99U, 0x3da26caabdaf680aU, 0xbc7ccfad3e12bd39U, 0xbe07804abdf150e7U,
  0x3de5a7febefb49c8U, 0x3c0e5d30bd977dc2U, 0xbd6ae785bd84b842U, 0x3dccb3393d8e885dU,
  0x3e1e2fc73de03ba2U, 0xbce3b8b73d25fa3cU, 0xbc60f904bd9106e7U, 0x3e183d79be023f7dU,
  0x3e1d8ea7be100f08U, 0x3d461ea43daeb2edU, 0x3e1a5954be09a634U, 0xbd19bdd4be383769U,
  0xbe277c56be2c3290U, 0x3d9578593e359d7dU, 0xbe1aeffcbd916cb3U, 0xbdb6e7cbbdb8ee47U,
  0x3b59ab80becd4a65U, 0x3b42f573be2a7b23U, 0xbdc3d7473d9e744dU, 0x3da77e62bdd20110U,
  0xbe57bed93e1b8ed3U, 0x3ddf3aeabc3f5440U, 0xbc9f83b0bd4590f4U, 0x3da33e9fbcc90e08U,
  0xbe1c5a3b3da1d2aaU, 0xbcf7c59f3e146683U, 0xbc215be9bdfecc89U, 0xbc8b36803dfa4cceU,
  0x3d521b5cbda6a28cU, 0x3c9accc0ba73ab4bU, 0xbddffa53bdc8482eU, 0xbd910450bd9e6790U,
  0xbc4badb03d358395U, 0x3df5a24ebd8b825fU, 0xbe388686bda1e94bU, 0x3c866e2b3e087752U,
  0xbe0c9d3abdbf364eU, 0x3d965b90bdd3f7ebU, 0x3d041217bc982300U, 0x3e13eef3be138884U,
  0x3e1a576f3dc9148aU, 0xbd3b5ed03db8f479U, 0xbe1181253d893160U, 0x3dfa730e3d492f68U,
  0x3df78499bd24f058U, 0xbd27ef43bd864a19U, 0xbd2d7c3cbd66b548U, 0x3caca4e8bc64ee69U,
  0x3d2cc740bda15b36U, 0x3e285ddb3c922830U, 0xbc11152abd26ef58U, 0xbb836bc8bddc54c2U,
  0x3c8b5c0b3d263184U, 0x3de859563b0fd1c0U, 0xbcaf1a983c1aacf0U, 0xbe4c73833d92f6e0U,
  0x3dc3b5963daf091eU, 0xbd07d980bd96d80dU, 0x3c91b98fbe0519d4U, 0xbe054456bd59b0daU,
  0x3dc5bcde3dab0c62U, 0xbcd1c23fbdc11679U, 0xbe1b8055bdb29f34U, 0xbe3a46ef3e009e32U,
  0xbd735612bd7c1148U, 0x3dce257ebe168177U, 0xbd4b7c2b3e028ea3U, 0x3d0deb6e3ddb2c6aU,
  0xbe0a5edebcf43658U, 0x3d10b7233c185dc0U, 0xbe0f37713dbc624aU, 0xbe22e2353e298355U,
  0xbc3785f03dd4ea6aU, 0x3daec206bda9e0c4U, 0xbdcd73d13d73dcc8U, 0x3e059a69bda83c0cU,
  0xbe462bb2bd9393fcU, 0xbe31826dbca3e188U, 0xbce19ef8bcc67e78U, 0x3e070a65bd6c16c8U,
  0xbe0e36ccbe28520fU, 0xba261b00be1bd78aU, 0xbe1e830e3e076b74U, 0x3d7fee38bdfc0258U,
  0xbe3e1664bdde9748U, 0x3e34bcb33d3414c0U, 0x3e2d7443be24c987U, 0xbde67513be10839bU,
  0x3e26c6d53e00788bU, 0xbdf77b733e55887eU, 0xbcedfb0c3ddb5d9eU, 0x3d3209fcb9a46c00U,
  0x3d9ef1fa3d9b07caU, 0xbe0291f7bd81aaaeU, 0x3d59ee87be1647c2U, 0x3cb9a3b03e0d6159U,
  0xbdeb2c27bd731533U, 0x3d4cd5003dc50d3eU, 0xbd19806bbd002650U, 0xbdbc41233e0472ddU,
  0x3c5255a0bd566f24U, 0xbe1d9568be0d444dU, 0x3e2a3989bddc1cdaU, 0xbd1438043d541eecU,
  0x3d9604c23e109801U, 0x3e0d9e1dbdf56d8cU, 0xbdb8015d3d9c0bd2U, 0xbe2cad553e11b8b7U,
  0x3a6d9f00bd1af7e0U, 0xb9c9fe003dfa8c15U, 0x3baffb803e138778U, 0x3df80a8a3e0db255U,
  0xbe16fc8ebe254582U, 0xbd961c4b3da5694eU, 0xbe42fc663c4da876U, 0xbd531f2ebdbbfe54U,
  0xbd1c6f5ebe02afdaU, 0xbd6f0106bd16a4c4U, 0x3e141891be2271a5U, 0x3da6e0a43dd0b4e2U,
  0x3e31a315bd9a8d68U, 0xbd082ca43e08df17U, 0xbdbbc2613db90238U, 0xbe4a8c173d99353aU,
  0xbd6a3fd43d006896U, 0xbe3ec45e3ddb7206U, 0x3ca1dea5bd84d6c6U, 0xbc6009c13e152bceU,
  0xbe0d7a5abe1848b5U, 0xbe05418a3e034561U, 0xbdd281f73dada4baU, 0xbd5eeb9c3ca4d5fcU,
  0xbd729accbcf4d999U, 0xbbddcacb3e0c9a99U, 0x3e279d11bd245dacU, 0x3df2107abd517d74U,
  0xbdb8898a3cb18568U, 0x3e0f76413e0933cfU, 0xbd74f4c43ddb038aU, 0x3dccf3cebda9f1a5U,
  0xbe298dd7be092294U, 0x3c2cf7393dca94edU, 0x3e2f4cad3d237dd7U, 0x3ce3db00bcd99a57U,
  0x3dc3fa823dc09c66U, 0xbe25661b3df47d16U, 0x3c0185843d93e175U, 0xbe338f1abb506800U,
  0xbe05b2ea3c373690U, 0xbe2b860f3d523fc8U, 0xbd904cc8bdc8d1bcU, 0x3c9dcbe03e1a7f27U,
  0xbe197a03be1f5ea8U, 0x3d9101113db1424eU, 0x3d4a26e7be05f02cU, 0xbe500c5f3d0c9960U,
  0xbc19f5703dfcbdbeU, 0x3e080f4b3e025de8U, 0xbd85d3e63e2b9585U, 0xbb177003bd77a874U,
  0x3dbb884e3ddc369aU, 0xbd6a426e3de6a93aU, 0x3d327a31be26f049U, 0xbe2b288ebdb66c5cU,
  0xbcd6a3d8be2ce5cdU, 0xbd968d68bcc90560U, 0x3dc610e2bdd951ecU, 0xbad70000bd48038cU,
  0x3daf1c22bc9599e0U, 0x3dd9331abd10c119U, 0x3d2911ac3cf2f080U, 0x3bd7d340bd9969afU,
  0xbcbd2bd03e33d281U, 0xbe0b3f7c3d894db9U, 0xbc253aa0be43b53eU, 0xbe332410be1b6fbcU,
  0xbdd446e1bd8875e9U, 0xbdd80a883e11fa93U, 0xbd821da8be26cc44U, 0xbb610eadbe2234e9U,
  0xbde9f0b43de9144eU, 0x3dc6ab623e126b75U, 0x3e052aa33dd0e2faU, 0x3c10e2f6be0b1b0eU,
  0xbe16fa203d75cbecU, 0xbdd80e88bd02e238U, 0xbe330ca93bab9e40U, 0xbd648a36bdf0a812U,
  0xbdaf4e363dd7619aU, 0xbdaec0debca6ac43U, 0xbe0a43ebbe063a10U, 0xbe4ee20fbd945deeU,
  0x3e1c765fbe4fe89cU, 0x3dbcf816bdb914a9U, 0x3d95488ebe199cafU, 0xbd8203773d242d54U,
  0x3d9c3cbe3db41306U, 0x3deddd08be2d9cfaU, 0x3e11af1bbdb152eeU, 0xbd38d4f0bc8ccbe0U,
  0x3c7f5d10be02a17dU, 0xbd0afd903db4dd01U, 0xbc8f7d80bc99fe58U, 0xbd965d64bdb668d3U,
  0xbdc7d8063db8d34eU, 0xbda5e04dbde13607U, 0x3e198fe93dcf6c43U, 0xbd7f957abd904289U,
  0x3d838bce3da4ca44U, 0x3ce5dcd0bc8c7d38U, 0xbe43cb06be66fcafU, 0xbd761070bdbfc015U,
  0x3dce7094bb7b6340U, 0x3d5c9e9c3deb487aU, 0xbe194b69bd908cd2U, 0xbe162cc6bdaec3f9U,
  0xbdd031883dc0ef62U, 0xbd996c40bce6ba6cU, 0xbb43627cbdfbe478U, 0x3d6d4f72bdeedc52U,
  0x3be02a003d9df546U, 0xbe196c08be264111U, 0x3d9d2ebdbd513840U, 0xbe695705be004d97U,
  0x3e342d9b3d477c28U, 0x3c8281903d8522a2U, 0x3dbb1b9fbdc74b5eU, 0xbced97f9be30ca20U,
  0xbe191332bdcbb57dU, 0x3cdffd163df78ed6U, 0x3cc4bf68be06e773U, 0xbd3417a0bdc97cf7U,
  0xbd4266ec3d7f7cfcU, 0x3e25138bbe283a47U, 0xbe2eda2cbda85cdaU, 0xbe0e5fadbe4fcb10U,
  0x3d00d89d3ddb1ce2U, 0x3d0666acbdf16b77U, 0xbc9971303cebe4d5U, 0xbdbe8daf3bab0185U,
  0x3cf1c1b0bde538cbU, 0x3e34a581be1d94a1U, 0xbdb7f6bfbde12d7eU, 0x3d96107ebddefdf8U,
  0x3d7ec3923daa55aeU, 0xbd28b73c3b958fc0U, 0x3d4526803d6871f4U, 0x3c0198e8bd9b8671U,
  0xbd95aa233c4abc90U, 0x3dc9aa88be5c1acfU, 0xbe3a77543d5965b8U, 0x3c10c073bdba2f10U,
  0xbd7817fabd3c82c0U, 0xbcaa83aa3ba6704fU, 0xbde33d273e1cda89U, 0xbe3f648dbb2b03c0U,
  0x3cca9950bdffafaeU, 0xbdd5b8413d8a254eU, 0xbe4a2b6e3db0dfeeU, 0xbd9f86e2bd6b7304U,
  0xbe0299a83d4dcadcU, 0x3d985550bde1aa83U, 0xbc88c6703cc381a0U, 0x3d7f0b3cbdbd023cU,
  0x3e23924f3dea9e32U, 0x3e232417bd6df1d7U, 0x3cb32587bd763b7aU, 0x3e34dbdd3d04b364U,
  0xbd4e57cb3d9737baU, 0xbd37e908be4a98feU, 0x3dc6f83ebdb33e01U, 0xbe087bdc3d97bdc3U,
  0x3d202f10be33186bU, 0xbd80e2e23e2caa05U, 0xbe4f6983be36a20eU, 0xbd03a4b9bd6a9706U,
  0x3e1296263e0ee9fbU, 0x3ce2aa40be0f4b6bU, 0xbd951de3bcb2e350U, 0x3c01c6bd3db8aafeU,
  0x3a8cb0003e1f31c1U, 0xbc17bc22bdeab240U, 0xbdd38e4e3d589446U, 0xbd88cfb83dc8ae0aU,
  0xbc6d88b03ca8ade5U, 0xbda59ef43e3071e0U, 0xbbcd1b51bd71e2faU, 0x3e05ff1d3d8a8d2aU,
  0xbbfdfda03e3fe977U, 0xbdc694c2bc374c20U, 0xbd40d8f7bc3ed0caU, 0xbe686d0dbd2f237dU,
  0x3d69e5ae3c8b4723U, 0xbd8aeb12bd770cb7U, 0xbc8f94403de4836bU, 0xbe2f7d553d903e9eU,
  0xbe2674193ddd746aU, 0xbd9d723cbe9d4aa3U, 0xbe5973f73e1ede95U, 0xbe26272b3bf3d7b3U,
  0x3d3105553d5e1358U, 0x3d2fae08be154981U, 0xbcbe5c483d681107U, 0xbdd531163db2976aU,
  0xbdc3bd36be4dbc75U, 0xbc1ff3273d17b27cU, 0x3c8a9a323e38814fU, 0x3dd001e53e0b2851U,
  0x3dca719a3df7a8c2U, 0xbd65fa32bda85086U, 0x3d2ec1d83e070923U, 0x3d31e89cbdc93022U,
  0x3dda7fc6bd110d50U, 0x3df021e93d96294cU, 0xbdcba748bd842842U, 0x3d4b5f51be068389U,
  0xbb951e403d6ec924U, 0xbd2e5e543de59314U, 0x3d04198a3cfbbd00U, 0x3e38265ebeefa87cU,
  0xbe07505fbf08ecc1U, 0x3df3820abdbeff16U, 0x3e356256bd7f74abU, 0xbda6feabbc877d43U,
  0xbdee61ec3dd43c82U, 0xbd0cd9fcbe0d877cU, 0x3e0fa076bd624344U, 0xbe2b9f35ba9cd280U,
  0xbdd4387ebb8272e0U, 0x3e2820b5bc9af320U, 0x3d7bd595be27b515U, 0xbe209ff3bbbe7855U,
  0xbe30bf7cbdc873d8U, 0xbdfd7ef23d33babaU, 0x3da39c3a3c528673U, 0x3d83293abd3333dcU,
  0xbd2054c4bf04d23bU, 0x3e1da8a5bdf85e2eU, 0x3db6df653d96358dU, 0x3c109ef43e29caa1U,
  0xbc8d45fcbb8d1380U, 0x3e1f8401bb9afbc0U, 0xbe3124593d6b8b80U, 0xbd8b2f653ddf1aeaU,
  0x3cf3a288be202a15U, 0xbe572fd3be367876U, 0x3ceef4dcbe091873U, 0xbd31e0fcbe34923bU,
  0x3db3684ebdce8167U, 0xbe38dda63dfd3a3aU, 0xbdbcf882bdd5f6aeU, 0xbca17dc13e1157b4U,
  0xbe0b6e4c3e17d8f5U, 0xbdee8a89bddc2e4fU, 0x3e3694603d4de670U, 0xbb54a8583daeedb2U,
  0x3da34a1abd0e76f2U, 0x3d2e56bbbe1f5c86U, 0xbdd58289bdb88cc4U, 0xbdfd31133df65c4aU,
  0xbd70311ebe2f7774U, 0xbd98b471bcab8f4bU, 0xbe518f233d92b358U, 0xbe336e1c3e6be802U,
  0x3d87a9cebc1ce870U, 0xbcf1dd60be53d8ecU, 0xbe2a42c53df1d94bU, 0xbe2f89e2be0fc34fU,
  0xbdc08ad2bc566916U, 0xbb97fce03dff6746U, 0xbd7a1d213c2391d2U, 0xbe2387883e1fca61U,
  0xbd586c9a3e3035a7U, 0xbdfb65a8be264c9dU, 0xbc3e6bc03bbea640U, 0x3e10a69cbdca78ceU,
  0xbe17c09d3dfe4deeU, 0x3c03a60dbe2b3b1bU, 0xbe4960a9bd9b6a50U, 0x3e01baa43e2f6cc5U,
  0xbe29b186bcd3ffd8U, 0xbe1d1593be19918dU, 0xbd54df92bdbaf5b7U, 0xbe2cba8bbdf0478aU,
  0xbd725c1c3c65d631U, 0xbe2041f6bddca011U, 0x3e098b17be021ceaU, 0xbe1369033d22653cU,
  0xbbe7f5603db8518aU, 0xbdabfd4c3dd8b222U, 0xbdc0eed0be28c696U, 0x3d95c9c23da1a72aU,
  0x3e05ae6b3e319451U, 0x3e23e15d3da37e97U, 0xbd8954393e093885U, 0xbdeb4e3a3df89658U,
  0x3dcaeda6bd30bc3cU, 0xbe24cf37be12633eU, 0x3d848246be2eb8a6U, 0xbdaa0310be15dc49U,
  0x3dbbdc0abe4afbfbU, 0x3e0e90b5bddd2ea3U, 0xbdd621d0bdcbabecU, 0xbdacf246bd65e32cU,
  0x3de309db3ce1f0a0U, 0xbd4f62d0bd9b77bfU, 0xbd6d5802bd1572d0U, 0x3dbfc2cd3e250183U,
  0xbd958eac3e19da5dU, 0xbd767cdbbd2d312cU, 0xbde99c19bcb503b8U, 0x3dcd178a3d5d305cU,
  0xbdf85bae3e0a648fU, 0xbe2ba2fd3df50577U, 0xbd0312a0bd5037d4U, 0xbe1225c9be36e640U,
  0xbd9f0155bde30591U, 0xbd7513603da37662U, 0xbe4646c93dc6abb6U, 0xbd5470a3bc39d5a0U,
  0xbe10f9d0bc2a6709U, 0xbdd7ab9b3e0d0153U, 0xbc9c17083d8a358cU, 0xbe198ece3e04f85bU,
  0x3dc6732abd91b69fU, 0x3df808223df93e19U, 0xbd7f45d33cfb42d8U, 0xbd4103bcbcfb0b7fU,
  0x3dbc1ff9be083293U, 0xbe18839ebe397debU, 0xbe32b930bd874d06U, 0xbd00bdf0be4f1f89U,
  0x3cdc9d40be03c888U, 0x3e0776e13df16ed6U, 0xbe4cc6533df0ee16U, 0x3e12c0f8bdf42e0dU,
  0xbd11ccdb3dd48312U, 0x3d0b12903bcf3cc0U, 0xbdb83e96be2ec23aU, 0xbdf928a63da51a2eU,
  0x3d14c7543de831a2U, 0xbda1d362be3d4c8dU, 0xbdc080ad3e159bc3U, 0xbd979ba33c0b6530U,
  0xbb4bc080be0134a7U, 0xbe226002be206bc3U, 0xbd998b78be2244deU, 0xbe49dc873d778f1eU,
  0x3c9692803e1fb4adU, 0xbdfa7794bd8aceb9U, 0xbca10d13bd509a58U, 0x3deb629f3c991e90U,
  0x3d2b1a38bd8efc72U, 0x3d4e6e3c3dd64946U, 0x3bcf2d40bda3e87dU, 0xbcd40da83d889bdeU,
  0x3d514400be14b16dU, 0xbdd32efa3cae91e6U, 0x3da4a7573e2ae6c1U, 0xbe32c66abd9362a4U,
  0x3da556d93d1bc400U, 0x3de53f62be1bc7d4U, 0x3c2caf10bb927c52U, 0xbdf6295bbdbec492U,
  0xbd313a44be4b0fcaU, 0xbd8217abbe0cd6d2U, 0xbdf64a98be0e4284U, 0xbd74d2463df2b4beU,
  0x3d9ce3b5ba1c3400U, 0x3e2ccae33d5fb12cU, 0xbd18e120bd96ae55U, 0x3de723d33d694ad0U,
  0x3de0e97abe30d091U, 0xbe3e122ebd78b114U, 0xbe013beebda6b89eU, 0x3dbbe183be267345U,
  0xbdb47b5f3e0191e6U, 0x3c8ab968be32a39cU, 0x3de69102bde9630eU, 0xbd7477b9be45f263U,
  0x3dd1319f3df6a67dU, 0xbe322a9e3dfc6142U, 0x3db7cdd2bddb7175U, 0x3d9cb4a23e1c336bU,
  0xbc5736e1bdf2c93cU, 0x3d792395bd7f6b57U, 0x3e07dc2cbdac9145U, 0x3d81ef5cbd802c57U,
  0x3da366123d17adecU, 0xbdbbbc3cbe17e1e4U, 0xbe6217153e328a01U, 0xbe08742ebc86a3b2U,
  0x3cb706593da93566U, 0x3dfeffe43bf1251dU, 0xbe228438bd3e6514U, 0x3e18dcd1bb25882bU,
  0xbda07eedbd2fbeeaU, 0x3d2372e93e313037U, 0x3de6ea38bdc93cc1U, 0xbd4f5ef3be326158U,
  0x3ca90ca83ca11c08U, 0x3cd7f8b0be1b7fbcU, 0x3d7fbc303e24856dU, 0x3cd6dddbbda9d388U,
  0x3c5274f0bd0a5f20U, 0xbe0d9bea3dfbd777U, 0x3d8e66efbd5ebafaU, 0xbda3bd41bda036c2U,
  0xbe303ec0bdc025d8U, 0x3d43db283ca03ac7U, 0xbd28ffbb3dcf69caU, 0x3d237d7e3dbbc15bU,
  0xbdd91154bddf2b3aU, 0x3d9d4e3e3dfa08faU, 0xbe271385bdf66b86U, 0x3d4fb2bb3de98c6aU,
  0x3e24cc46bdffb323U, 0xbdd6a0ebbdcae849U, 0xbd926d113a947180U, 0xbd380110be1a25c9U,
  0x3d1768d0bd3e6708U, 0x3d534264be339ef1U, 0xbd495370be2e762bU, 0x3e29c90bbe2a6703U,
  0xbe546724bdd6b2a3U, 0x3a04be273d1dfddcU, 0xb97da000bdac660eU, 0xbdc5cea23dfd558fU,
  0x3d92d86c3da0cdf1U, 0xbdd2261c3d402eb8U, 0xbd6337203e06dc32U, 0xbe0b84f5be0811aeU,
  0x3d38df1dbe22deafU, 0x3e234dc1bdbc26c4U, 0x3e18f5333dd14e5eU, 0x3d492d613dd6184aU,
  0xbdbf59fe3c3b2be0U, 0xbe4716f4be1f3953U, 0xbdf840e63ce8b198U, 0xbd022cd13e1f458fU,
  0x3e278cb3bd9bb046U, 0xbe4b0876bdfd216cU, 0x3cda28e03ceb1048U, 0xbdcf7e26be094a0eU,
  0xbda80a303de0105eU, 0x3df4d6debe07dbddU, 0x3d6e017b3d1198b4U, 0xbb6157c33d285fe8U,
  0x3db937763d965830U, 0x3dcfca113d4e8310U, 0xbe0a20c03df7f0c6U, 0xbc872b403da87ec2U,
  0x3db49896bde45550U, 0xbda8b36ebe53f2a4U, 0x3d811255bd2be320U, 0xbe06e282be0bd068U,
  0x3d7a92fa3e0c7905U, 0x3d734e64bdfcb252U, 0xbc3e5770bcd2e5d1U, 0xbe0a63dfbde76d42U,
  0xbde1c5de3e1a4037U, 0xbd80d321bcbd9c80U, 0xbe544e1bbdb18b3fU, 0xbad097683cac88e8U,
  0x3d55cac8be2bb559U, 0x3ba7bc80bdba190eU, 0x3dfd88823e0d95b5U, 0xbe09c8b73d85f8a0U,
  0xbd64a7ac3b3c8c80U, 0xbcb7c2363dbc5a49U, 0x3d68217fbda0e1e0U, 0xbd5f1a423da076aaU,
  0x3d2a517cbe0faefaU, 0xbc412fabbe7aacf0U, 0xbd98dd54bc0148d0U, 0xbe59d46c3e144694U,
  0x3e0f9afb3c8ddeacU, 0x3bb910803d9b9692U, 0xbd88dd603c51c9a0U, 0x3c18b0fa3d7aac54U,
  0x3e05a6973dd6a08fU, 0x3dcc30163e173ca3U, 0xbd854dec3d8a5378U, 0x3d9cf4aabdbe4afeU,
  0xbcf78e70bdc2fa94U, 0xbdc4a80f3d294740U, 0xbe0cce16bd96624cU, 0x3de020a23e4d7965U,
  0xbd80ff80bdaaa68fU, 0xbd41a5d8bccda6a2U, 0xbe09b058bd98eefbU, 0xbe1067553cffd894U,
  0x3d4aa53cbd537a0bU, 0xbe2e5ac7bcd56a98U, 0xbe1aae2abdce78fcU, 0xbe0df8a73df1cf86U,
  0xbe247217be167d6bU, 0xbd0adee4bd1bf828U, 0x3c48b6a03e293063U, 0xbe2978fabcd39240U,
  0xbe234b043da48862U, 0xbc7de336bd2afcbdU, 0x3d3fdae63d28f06cU, 0x3ccf3708be1893f6U,
  0x3e1e917d3d7e492cU, 0x3c499285bd562872U, 0xbcc9b380be27c9aaU, 0xbe1bd1a63df14bd8U,
  0xbe133ac2be3f7d76U, 0x3e2fb1a53e0fca77U, 0xbd74b4393e093d21U, 0xbe084ee33db6ad2aU,
  0x3c163b00be58d7c2U, 0x3daed6363de97c6aU, 0x3c160b703d1b5350U, 0xbd1cdc74be11cdf8U,
  0xbb2d9140be161141U, 0xbd35d898bdd3a0ebU, 0xbc8273a4be147654U, 0x3dd6d8a63d856763U,
  0x3d9448e93d89727eU, 0x3ce0ee48be09f38aU, 0xbe27a01fbe1991c1U, 0x3dd9cc42be09c7c4U,
  0xbd1efff0bd0fbcfbU, 0x3bf94fc03da4a336U, 0xbdc4b7a73e0f12a7U, 0xbde732cf3da4d122U,
  0xbe362f7ebe2ee803U, 0xbd4826043dfc0456U, 0x3e1c738f3cf638c0U, 0x3c5b5735bda55c46U,
  0xbdbcb852bc9a26a8U, 0xbdb648743e1b256dU, 0xbdb812c5be3bdf8dU, 0x3cabe82f3d1964e8U,
  0xbe2744063d927469U, 0x3e03c686bdaa2d24U, 0xbd255e54bda50b0bU, 0x3e0698483db38a60U,
  0xbde9e63ebb8f3463U, 0xbcee36203e0cfda3U, 0xbdd767a2be1d2f0fU, 0xbe2e424cbdc63d08U,
  0x3df2b9f03baae7baU, 0xbdc043423db22f4bU, 0x3de5b985bddf1f72U, 0x3c0c60603de5a97aU,
  0xbd911cac3d2a4ed4U, 0x3de9621abda444d8U, 0xbe3cd75e3c6471a0U, 0x3df14486be158c59U,
  0x3d6ff16dbd9fe5afU, 0x3dabbb09bdddd1a4U, 0x3c421b403cb6fd1cU, 0xbd4a6db03e1b329dU,
  0xbe07bf7b3d5646ecU, 0x3d16e6003cfef8f0U, 0x3e250f80bde5193bU, 0x3def6796bdae3035U,
  0xbe40dcc73c8c2698U, 0x3d044f643db8b84aU, 0x3e0a00753da7aa3aU, 0xbe29a52c3d98ff72U,
  0x3cd3b7083d9ea99aU, 0x3e168fcdbe12a2deU, 0xbd520790bde8f9f6U, 0xbe4e137a3d709cb0U,
  0x3de1cefebce05a68U, 0xbe113cce3cc9e97cU, 0x3dc2e96a3e112be3U, 0xbe0ead74bde80d1fU,
  0xbda1460bbd52e061U, 0x3e0f5ba3be22d493U, 0xbdfe867fbc99fe00U, 0x3e04fef5bcf920f8U,
  0xbc4b15e03b8b66e3U, 0xbd89b868bd8ae483U, 0x3cdc0560be24d34eU, 0xbde80c21bc3ad980U,
  0xbdd40014bdb15447U, 0xbc29ce40be36cc9dU, 0xbe385ae7bdb6d568U, 0x3e269cfbbd812f9bU,
  0xbdc70decbdf16248U, 0x3decff12bd626cf3U, 0xbdbbf928bc2dfe81U, 0x3cea54903e08e946U,
  0xbcea6f68be3300e7U, 0xbc9258483e2839fbU, 0xbd4be3343e0a251dU, 0xbde830a7be0af299U,
  0x3d358cb83dae36daU, 0xbdca1898bd980ba4U, 0x3e23979dbde0453aU, 0xbd5cbae8bdc49338U,
  0x3c01b370be0e7c91U, 0xbe0e0b4bbdf98b80U, 0x3da0ad0a3d31349cU, 0xbe281bbc3d64c280U,
  0xbdc455d63ca47568U, 0xbe278459bd1c64f9U, 0x3c8555d3bd0c72c8U, 0xbdff21853dc2da23U,
  0xbdaec55d3e7f4791U, 0xbdfef16cbd08db48U, 0xbe1851183e231e31U, 0x3cb9be183dcd0b0eU,
  0x3e1d4067be3567b0U, 0xbe137966bdff39edU, 0x3da308fabe22d3bfU, 0xbe038528bd67a4e4U,
  0x3db135ea3d3588a4U, 0x3e1b7f7f3db25b9cU, 0x3c6826bfbd77fbeaU, 0xbcecd0403e01f437U,
  0x3bdc26003d0966a0U, 0x3e195e21be549314U, 0x3d0684543e0f890fU, 0xbd713bbe3d347b80U,
  0x3d92d4f4bd98716cU, 0x3e28297fbc4352e0U, 0x3d5db3dbbc9a67ecU, 0xbcab833cbaabeb80U,
  0xbda6349a3d008548U, 0xbe1430643d945846U, 0x3d6839c83dba1a06U, 0x3d418ed4be2e6390U,
  0x3db8047a3c088130U, 0xbb6d1d3dbdeeb2f4U, 0xbdfefa39be3d9642U, 0xbc221abbbd8860d2U,
  0xbe33a0a23e1171cdU, 0xbdb30cf53e1d1909U, 0xbe12c49dbe1812bcU, 0xbe0048e2bed5d7bcU,
  0xbe26923abc2936d5U, 0x3e248e8f3debf352U, 0xbda9b3b83db748baU, 0x3dbcbd15bb011df5U,
  0x3e2c47ad3e040898U, 0xbb893bfe3c8f7d90U, 0x3dcfa29abdb50381U, 0xbd8e535bbdc2e6efU,
  0x3cd298603d9e5a36U, 0xbdddf046be32f382U, 0x3daaaf9cbd879b19U, 0x3e1e883bbd83af94U,
  0xbda4fda93dcf3032U, 0x3e0ef8a7bd2a26f1U, 0xbd8e4a953d7fcc02U, 0x3d8638d03e26198fU,
  0xbe2d20d3be68f7b5U, 0xbd369198bdaf6ebdU, 0xbe27e2e23d037c7fU, 0xbe3ef26bbd93f0afU,
  0xbe1b3032bd0009d8U, 0xbe03e0593cb8d070U, 0x3e12b0ebbbe455c0U, 0xbcc4ce103d8078f8U,
  0x3e2b154f3cd11240U, 0xbe346d54bcf35200U, 0xbe2e523dbe30e617U, 0xbd9198373d89bc86U,
  0x3e2d6e07bd456148U, 0x3dc9a5aa3d404a34U, 0x3e087937bc73a390U, 0xbd676ab03dbe021eU,
  0xbb8817203b267d80U, 0x3df19056bc9105c0U, 0xbdefb0d93cd16c90U, 0x3d2488cc3da7f20aU,
  0x3d7b2090bd4c0ff0U, 0xbddee7acbd30e3bcU, 0x3d97b2823e27fd29U, 0x3d3a8bbc3c502210U,
  0xbe1146fdbc30b8e0U, 0x3e2c90b53d3f5c0cU, 0xbe11d090bdc3c234U, 0xbd1532fcbd203194U,
  0x3bc653603c1dd900U, 0x3d861d163d6dd4f0U, 0x3d029cc8bdf2249aU, 0x3d3c2b6c3d329b34U,
  0x3d09dfe43c272830U, 0xbdae962abd994325U, 0x3c807cf0bd1499a4U, 0x3d8a3d743d5a643cU,
  0xbdfc9be03db45b72U, 0x3e2e7141bdc3fa6bU, 0x3d47a9843d47daf8U, 0xbdbe2da73e1283afU,
  0x3db4aa7abda541c7U, 0xbdd88e23bd04b8dfU, 0x3e039e6fbd783d13U, 0x3d7f6b6e3d26a090U,
  0x3dc49e923d66e57fU, 0x3c3ae2ccbdf09c0fU, 0xbd747d033d085c50U, 0xbdacdc85bd07d1cfU,
  0xbe1820cabf212911U, 0xbdc6bb3a3e0cb1bbU, 0xbe2b70b4bd0519e7U, 0xbd1904223d9e3038U,
  0xbdcd1b903cd267c9U, 0xbe30f4e3bc4d062bU, 0x3dbcd1e23d6b9113U, 0xbddb91993da28022U,
  0xbdfc80b83d446190U, 0x3dd4639a3d9165fbU, 0x3ded4b91bd64e250U, 0x3df23aae3cb93947U,
  0x3d7f3693bddacbdaU, 0xbe04afee3c825675U, 0xbdcbb72e3bca584cU, 0x3db910c2be3088cfU,
  0xbe2099e8be4cf33bU, 0x3e24ead2bbc8b100U, 0x3dde097abda1956eU, 0x3db17549bc01fae0U,
  0x3d865fafbd0e9cd8U, 0xbd5ffe9abd29127cU, 0xbe31ef413e10e4b1U, 0x3b9c9d85bcee7378U,
  0xbdbad90e3d1bf2d8U, 0xbdcb2f1b3d2c7b27U, 0xbd8c714b3d38d878U, 0x3cd3fb7dbe2a345aU,
  0x3db3cafa3d0c0a36U, 0x3e18669ebe2d3a6dU, 0x3d161a493e2278b5U, 0x3da29aeabdb78c00U,
  0x3da4500ebea91f9bU, 0x3dd9c59e3e1f680fU, 0xbe098136bd1eee54U, 0xbd6668163df8dceaU,
  0xbe0775b73d59f55dU, 0x3ded189a3e052b7eU, 0xbe141a05bde1e39dU, 0xbe1cce8dbd9338b9U,
  0x3e2f5ca33de4ff92U, 0xbde55dcb3e2915d1U, 0x3e1bc0d13d0b5f8cU, 0xbd597ea6bdbe9577U,
  0x3d5991d3bd80be5bU, 0xbd44df583e137bcdU, 0x3d5b2b843e013ef8U, 0x3c59c070bdc10ecfU,
  0x3d05b544beb6e1f5U, 0xbdf978c93dc335d2U, 0x3dbb30623d0d9193U, 0x3dcc92eabdaedd18U,
  0xbd1c34aabdf9004eU, 0xbd8fbdf23d6cbc5cU, 0x3d64fbd03e290345U, 0x3e1fe1f83d3e5b48U,
  0x3d850f2a3d4db0e0U, 0x3d3763f23df64fc7U, 0xbe5416d23e1c02a2U, 0xbc105e3dbd990dcdU,
  0x3da99c3ebe3e08adU, 0x3da82bb5be30bd75U, 0x3e15b7adbe2617faU, 0xbd912df4bd038888U,
  0x3e2ace073cd9dcbaU, 0x3d520eb8be2c2fbeU, 0xbd9388a5be1e7da7U, 0xbe334d243d46412eU,
  0x3c342cbdbb8c42a8U, 0xbe0652453e250979U, 0xbe10523e3e0a2787U, 0xbd3f9d98bcb8be50U,
  0x3dd5b0f2bc98ee60U, 0xbdf1b6d33e2154d8U, 0xbd51df63be2add1bU, 0x3d4511fc3d1ac428U,
  0x3d26cdaebe18dbddU, 0xbcbe0aa7bdbbf071U, 0x3d0c49bc3bdcee05U, 0x3e18d5fdbdb1e50eU,
  0xbe1238d23da20f8fU, 0x3de04587bdb7f172U, 0x3e0ca0003d1c290dU, 0xbc31fc74bbe91800U,
  0x3d207863bdc5a7a2U, 0xbe1eb8a2bd079978U, 0xbd96a83c3e313f37U, 0xbcd289cbbda7bc24U,
  0x3cc3cc983d5b1880U, 0xbc946637bccbb36bU, 0xbe5b1f5e3ded24aaU, 0x3dcdd2c5be180ae1U,
  0xbdfd2a3abde3d87cU, 0x3daed0d03da20129U, 0x3d7854d93e0f09cfU, 0x3d1c4de5be5425a6U,
  0xbdac13343d16d936U, 0x3dc5a5123cff20e0U, 0xbd8a8971be0c1cecU, 0x3d190f1b3c0078d9U,
  0x3dd5e9053e304486U, 0xbd478cbdbe03f08dU, 0xbe23b6e63dfc7aacU, 0xbdc80085bc0d9240U,
  0xbda4e89ebe12efbaU, 0x3e221b673e1e09fcU, 0xbd1c10a1be1c727cU, 0x3e210313bebf599aU,
  0xbe73bfce3d816196U, 0xbd305fcd3d7a5be4U, 0xbc65f5503de0d098U, 0xbde59c463e39fbf4U,
  0xbd3ac5543d06fff8U, 0xbdbf6b343e33390dU, 0xbdd43f32bd324801U, 0xbe0114e8bdf8e7faU,
  0x3c725fefbca4ab10U, 0xbd98ff38bd453b38U, 0x3e1707d5bde8b2a1U, 0xbe409cda3e1f0103U,
  0xbe25f9f5bcb3d460U, 0xbe3e6b353e11ec65U, 0xbd48f0f73d638fc3U, 0x3d59ca44bdba0bf9U,
  0xbda011ec3cc9a40aU, 0xbdf2439cbe3289a8U, 0x3d83e5ed3e1341d9U, 0x3c64e543bd74c290U,
  0xbcf2baffbe5423f2U, 0xbe312be2bb317080U, 0xbe859db0bde6d385U, 0x3dd0b7a23de74da5U,
  0xbd4252f53cc488ccU, 0xbc9dfaa23dbf5f57U, 0xbe003e193dc15410U, 0xbc1cfc903e1385cfU,
  0xbdc432863db72c36U, 0xbdf6da0b3df14749U, 0x3deb24e5bc628a10U, 0x3e1ad457be0057d7U,
  0xbe02ef223da8721eU, 0xbdb9e444bd998a6aU, 0x3d594248bcec2705U, 0x3e1ea8a13da76956U,
  0x3d7aef04bd2090d9U, 0x3e14843bbd4ae2d8U, 0xbd251259b91104bcU, 0xbdc1b161bdcd925bU,
  0x3ba0de193dbb5cdeU, 0x3d9e7376be0b906dU, 0xbd3c9294be118394U, 0xbe5cb53e3c878d88U,
  0xbdfb61e0bbfce980U, 0xbe8189d4bd4a211bU, 0x3cf0977ebd902934U, 0x3d2f7d7abb188fc0U,
  0x3d9055aabde54ce8U, 0x3dd5464bbe5dd6caU, 0x3d893ff7bc0dda80U, 0x3b73c62a3a831139U,
  0x3d9dd10ebd43eee0U, 0xbe095ab2be067655U, 0xbe6084a7bca399c0U, 0x3d7fd271be2a343fU,
  0xbde1c9373d7f68afU, 0x3e02d9593cb0e0deU, 0xbe1e2c6bbdda45ebU, 0x3bdbfd80be077755U,
  0xbd218610bd8d7aeaU, 0x3c9538c0bd8388d0U, 0x3d0a4765bd79d574U, 0xbc9bd2003dcd536aU,
  0x3d7335b83e003eafU, 0xbe16c6ccbd52c718U, 0xbe178348bcacb2e5U, 0xbd8a93fdbe03d0abU,
  0x3d5b3e40be278a9bU, 0xbd1e8fae3e1e348fU, 0xbc153f72bdddf836U, 0xbe4e472ebe0c350cU,
  0xbd9700f83c425f20U, 0x3dcf4622bdd7833bU, 0xbcc3e6c03d90dabcU, 0x3e1217103dd16a7eU,
  0x3d80d8ce3e18bc65U, 0xbe172695bd5c1351U, 0x3dd30c963c2f8570U, 0x3e03f5a7be275fddU,
  0x3dd97c66bdc9d319U, 0xbe199eecbe75f89aU, 0x3c03ad2f3dc354aaU, 0xbd36815f3d6c81c1U,
  0xbe2dd186be384dfaU, 0xbdf7b304be15829eU, 0xbde713a3be0f747cU, 0x3d32b3653e22c6f7U,
  0xbdf734e8bd7a16daU, 0xbd7f6adf3e1fcf85U, 0x3c5a15f0be2139d8U, 0xbcfccb783d935b4eU,
  0xbe29ecd2bc9709f0U, 0xbe036f0ebcc3344aU, 0xbc9baed3bcffcf48U, 0x3d0a44ccbd81339fU,
  0x3d71ea79bda9fbe2U, 0xbdcd6947be6488d5U, 0xbdea0a653de02dc3U, 0x3dd0d46ebe33b09eU,
  0x3da8b726be74a0ceU, 0xbdf99bce3db4e2beU, 0x3d6efd073d8e9581U, 0xbcfb19f13de3fd96U,
  0x3dd64ff6be02d6daU, 0x3d9a980a3db00b7aU, 0xbdd78c013ad3b200U, 0xbd9dc0f53dbae75eU,
  0x3e027c21bbff6320U, 0x3dccf399bc4a17dbU, 0xba9865613dc864e1U, 0xbd54e2943d47ef50U,
  0xbdd05bf5bdd3dd6eU, 0x3daba99e3d23af34U, 0xbe2eba47be0848a9U, 0x3c0cc3633db8c8f1U,
  0xbdfa7743bccd025fU, 0x3d6419f0bd9c15b8U, 0xbe3736123bb66fdcU, 0x39a6fa3c3cc4b1b5U,
  0xb6eac7a1be1bf47cU, 0xbd536b963dc8ba27U, 0x3daf9e8a3ce2c6c8U, 0x3d2bca48be2ad55cU,
  0xbdafcdb63d994e6eU, 0x3d1a362cbdd7381dU, 0x3d6732eabdce88e4U, 0x3e15b6adbe19440eU,
  0xbe1ead10be1bd1bdU, 0xbdba57263e0fe1abU, 0x3e2c1b653e00e1e0U, 0xbdd95f94bdb79f8dU,
  0x3dfd5536bdb18edbU, 0xbda7df4c3dad7f6aU, 0xbdb5efd63cefb9f2U, 0xbe228a55bdf88e21U,
  0xbe2723ae3d55d970U, 0x3c516fb0be26064cU, 0xbc3cdec0bce13ec8U, 0x3c458f42bd3b1c14U,
  0x3ccbfe683c24c640U, 0x3ca6b4863db981b3U, 0x3cd365e43ca91490U, 0xbda3a7d13de1a542U,
  0x3df43dfabd51c663U, 0x3df0ade7be5d4b37U, 0x3dbb60913d0b9028U, 0xbe0d96eabd7fe2dbU,
  0x3dc0f59ebe514a5eU, 0xbe2e05983dcecc6aU, 0xbd546c213d318bb4U, 0x3e33fa1d3de94b8aU,
  0x3d7bb8e23d80cdd3U, 0xbe173c3fbe3f688dU, 0xbae0a9713e17cb9aU, 0xbe175a453d99a84eU,
  0xbdf1eb703d3c5c58U, 0xbd8c0fcb3e9e5684U, 0x3e2352a2bddebe1bU, 0x3c0f31a0be9c2841U,
  0xbe1b7848bdc8ad2fU, 0xbdd46987bc18fb22U, 0xbe2955293d668e08U, 0x3e03f5133d354876U,
  0xbe23c69a3db429afU, 0xbe158420bc9580b0U, 0x3d86fe46bdceec44U, 0x3d1dd504bdeac40eU,
  0x3c99a3c5bd5875b4U, 0xbda3a479bddcb8e7U, 0x3cbe0360be2804bbU, 0x3e02d7a9bbe83de0U,
  0x3e23b21b3d96eeeaU, 0xbe461e8c3d3b005cU, 0xbce00395bd07072cU, 0x3db8e32a3e0e2285U,
  0xbd96eb57be20d2b8U, 0xbe1ffea6bdf4ee40U, 0x3e04e3a5bdc4f697U, 0xbdff3737bd24eb9dU,
  0xbd3e6a38bcc003c4U, 0xbd38c17cbc4e7760U, 0xbc5d038c3d15d5d8U, 0xbe04767bbda74668U,
  0xbe3165efbd5375fbU, 0xbda1f0713dda7042U, 0xbdc39b833e12bbcfU, 0x3b327200bc894130U,
  0xbdcd61033d384478U, 0xbe2e0e0c3d87d0cbU, 0xbe45e5f73e303ae1U, 0x3e0f795bbdd6927fU,
  0xbe0d22623df3bc2aU, 0x3e2c223dbe0c2017U, 0x3d0f9d7cbe42adc6U, 0xbde278c43dbe27c5U,
  0x3d891fdabcc07396U, 0x3b2cc400bdf32724U, 0x3e029170be125568U, 0xbd40e3c83dab4ab6U,
  0x3d9675a6bdf19f40U, 0x3c51ad003c9d3050U, 0x3dd29fa23d92715eU, 0x3bebb1de3d7cbd34U,
  0xbd7806a6bdd10eb4U, 0x3d10a2cfbd39e8c0U, 0xbcbca368be076226U, 0x3d0587dcbe1620b0U,
  0x3d56c8ccbc6a5aaeU, 0x3da4dd173bb71125U, 0xbc8b46e73ba790a0U, 0x3e8f22903dc59d5fU,
  0x3e1bdd4abe34cc20U, 0x3db64c6e3df008d2U, 0x3e0d82433c6f6381U, 0x3dcec1263d800652U,
  0xbd9f7df1bd25b690U, 0x3e48533f3ddb6317U, 0xbd53478a3c25e693U, 0xbd88a0f33e09cec3U,
  0x3d60ea983dfc9352U, 0x3db67f7ebe17de75U, 0xbc9f6b60be239885U, 0xbe1e02f83d981204U,
  0x3d1a0a28bd43f7dcU, 0xbda5ed723d0d645dU, 0xbd993b80bd814d91U, 0xbe34f973bd984568U,
  0xbd36ce38be91f0acU, 0xbe05c0013db68c16U, 0xbe04d15c3e587b30U, 0xbce6bc3b3e05e535U,
  0x3d1fca083da5ce4aU, 0x3cc5a3003d9fcb26U, 0x3e0b94ad3d1f4874U, 0xbd09f09cbdd592faU,
  0x3e24e2093d385e30U, 0x3e19ddcd3c863ef8U, 0x3bd593a0be1e8054U, 0x3acc4800bdd20192U,
  0x3a7a02003df0e92aU, 0xbb429ec0bdeeddfaU, 0x3d82f740be2b919bU, 0xbdf7b35ebdd55866U,
  0x3db9574ebe33b061U, 0x3e043c63be13e8dfU, 0xbd7c904cbe247a5dU, 0xbd50088cbca43880U,
  0xbcec06f8bdb9d6ceU, 0xbe1b4405bd9dc360U, 0x3e1aab3b3df61d92U, 0x3de59496be0f231dU,
  0x3cd709503e1f40d7U, 0xbe04dfa03d14b798U, 0x3dac63da3d774c28U, 0x3db0a48e3d409870U,
  0xbdc0dfc3bba1bba0U, 0x3e10f871be06d157U, 0x3dca14163bb442e0U, 0xbd4f23a8bd43705cU,
  0x3e017b3bbe0e6396U, 0xbc888b483dd809aaU, 0xbe20d8d9bbdd5da0U, 0xbdeb793a3d8e1708U,
  0x3ccb2c533dd5aa5aU, 0xbe1afdc83e278017U, 0x3c6b2d303e17a6b3U, 0x3db6b954bdd36928U,
  0x3c1437603e16cff1U, 0xbc17da253d279a73U, 0xbe8214af3d9e4214U, 0x3dc2d12a3e259ee9U,
  0x3dae7cf2bd860475U, 0xbd631ef3bdbccdc5U, 0x3d73f933be12a2a4U, 0xbe19cad2be73af17U,
  0x3daba5c6be1466deU, 0xbcf5cde0bdbc5646U, 0xbddc1038bcf950f8U, 0x3e2fb733bd1e1826U,
  0xbba621bd3db0e813U, 0xbe43c3adbd38bb3cU, 0x3d32ce59bdbaed20U, 0x3e1bd2e33e15fb1dU,
  0x3e2246ebbc983b90U, 0x3df55c663d9ba8bdU, 0xbd5f224c3dc09096U, 0x3e2ff0e3bc3bce07U,
  0x3c8341c23dc176baU, 0x3d8f443a3cd32c9eU, 0xbd04b498bd3d1850U, 0x3c111880bd887980U,
  0x3d7d76483db329f9U, 0x3dca49de3ceaa3c0U, 0x3e382fd4bdf93d0bU, 0xbdc326f73d2ad0c4U,
  0x3b39db91be187f8bU, 0xbdc3d98fbbc8b920U, 0x3c3d3d20bde85a98U, 0xbd2e6ba63e145263U,
  0xbe1934e2bd24952cU, 0xbc9b64f43de1dd45U, 0x3c0a595f3e13a67fU, 0xbdc5b6123d402698U,
  0x3d9c43263d51d759U, 0x3e0874f5bdc26a3aU, 0x3df5ca2a3e1f4b63U, 0xbd9a3df53e18c9f4U,
  0xbc232190be3e60b1U, 0xbd3301543d1209e4U, 0xbe229b71ba8c8700U, 0xbe345b85be29bd6eU,
  0x3e36f6943c89d931U, 0xbe486b003df02e3bU, 0xbc86d0713e2a7707U, 0xbe0698023d918bb0U,
  0x3dbc3b823d2c6c84U, 0x3d95683e3d1cc25bU, 0x3dc2d2d8bddb6529U, 0xbcd4dd30bc9fe486U,
  0xbe4dca223d9e6d82U, 0x3e062a48bda8cebbU, 0x3e2daba33a35e982U, 0x3d6f2e483d62c009U,
  0xbdf5e957be32eee2U, 0xbd73f7683d81df74U, 0xbd10dacd3e0583e5U, 0xbd11b870bdba8ba0U,
  0xbe0dde3cbe25010cU, 0x3dda67063cc7d5b0U, 0x3a840c00bdfc26c2U, 0x3d1b7427bdc60679U,
  0x3db9cf523c8748f0U, 0xbdc9e0fb3d3cf454U, 0xbe0339d93dd1775eU, 0xbe1cffa7bdecd39aU,
  0xbe2f7e483b0e3e10U, 0xbe423875bd80c93dU, 0xbe3b88293dc3f752U, 0x3df4f3cabbefe364U,
  0xbdd1b09b3da2a574U, 0x3d78ab503d3f4468U, 0xbd9de9c33da317bcU, 0xbc0747813c5532b8U,
  0x3cab51a2be455942U, 0x3cec6db6be1b0130U, 0x3dceea533dd6fba6U, 0x3e320fabbe28a404U,
  0x3c2b5b80bd2acdacU, 0x3da35f66bd67c751U, 0x3d88fd5dbd9105b6U, 0x3c492870be0cd1d1U,
  0x3b2cb1beb914e400U, 0x3dc52de4bb962a88U, 0x3e1df21fbe519aabU, 0xbd8dcb483d98de23U,
  0xbe137ac3be1091b9U, 0xbdc7fa063c8be2f8U, 0x3d04d9b33cd4496bU, 0x3e07df633d77d06cU,
  0xbe0eda0e3d90c77cU, 0xbe1447ae3b425c40U, 0xbd700c22bc8ea3a0U, 0x3dbaef6cbe34f0cfU,
  0xbd9bb0b1be061cdaU, 0x3df856043dc0cea9U, 0x3e012c92be2f9e01U, 0xbe49c13dbddb0663U,
  0x3deb6b82bdff1bebU, 0xbb74d96d3dbd20e6U, 0xbdd056643da1b05aU, 0x3c96eae43da36374U,
  0xbdf6b29abdb8fb50U, 0x3de4ae3a3e23c575U, 0x3e083c07bd5fbbf6U, 0xbe35394a3d8a32c2U,
  0xbe28f2e2bde29eb0U, 0xbe37d0663df6c222U, 0x3da50bc2bc443ad0U, 0xbc8f08083b844800U,
  0x3e257bb5bb2f9540U, 0xbd1859003dd6cdc0U, 0xbe13e191bdbb1945U, 0x3d9024963db0c171U,
  0xbe2942143ccd7b18U, 0x3e10c06dbd1cec76U, 0xbe2e9693be404171U, 0x3df03aa6ba09d940U,
  0x3e1adc95be1b68d1U, 0xbdab1e373d97cecaU, 0xbcaf7fe73e240b33U, 0xbe4de1a5be2e1915U,
  0x3deebef33df7559eU, 0xba4e0b003daa7612U, 0x3e2dd67fbbd0a900U, 0xbdee37f8bd63f2d4U,
  0xbd1bff5cbc144600U, 0xbd28a423bcdf94a5U, 0xbd41e448be31533dU, 0xbd77239fbe3069dfU,
  0x3dd2ea36bd77c045U, 0x3c03ed5ebdde5906U, 0x3d4b992b3d2956c4U, 0xbe273cb23dbbf5c3U,
  0xbdffc141bd46f2a0U, 0x3c9c4108bd925a57U, 0x3c5acfcabe07af87U, 0xbe21ec4c3dffe111U,
  0x3ca5a6f4bc88b3fcU, 0x3d8779523c60eff9U, 0xbc983297bdd55a68U, 0xbdd174bf3e2e5d33U,
  0x3e0750d13d89c924U, 0x3db8504ebdae471eU, 0xbdd701b7bdb85fe8U, 0xbcb6f4b83da69478U,
  0x3bb09ae63db97ceeU, 0x3e2238383e080389U, 0x3da3133a3dcc57aaU, 0x3c6a7be0bd8d3823U,
  0xbe1b3e1c3bc47426U, 0x3e2879233de7457eU, 0x3c3f17bc3d3280d4U, 0x3de8954bbd9a4c22U,
  0xbca9dcd83ccb8990U, 0xbd050b843da5672aU, 0xbe241a1ebd806910U, 0x3cb5dd28bcb7e8f0U,
  0x3e1912613e0826afU, 0xbe2c7bb7bd5b0438U, 0x3d52fceebd656258U, 0xbe35eccf3d96b13aU,
  0xbdbebc713deac6f2U, 0xbd516a2b3d6b8f4fU, 0xbde3b30e3e25665dU, 0xbdb257c03d40282bU,
  0xbda93d40be376978U, 0x3e2e5765bd7870fcU, 0x3da859373d901bdcU, 0xbe0eb0e2be22198eU,
  0x3dd4dc323d873d02U, 0xbd6f974e3dfff2f2U, 0xbe1dd68ebe228c87U, 0xbe15251dbdec3842U,
  0x3cd525a83e2862f7U, 0xbbff59403cf485b9U, 0x3d40d5f53e1a10a3U, 0xbdf54e703d7c7ccdU,
  0xbdf4d35cbdbbaa9aU, 0xbdd039c6be32977eU, 0xbd1eee20bdc0397cU, 0x3db9a8aabc97cf01U,
  0x3cfa87303d5c5cc4U, 0xbde6fbd33d78c238U, 0xbdcf34a9be1dee9cU, 0x3da8510abd3c04d8U,
  0xbcfd72803cf0c698U, 0xbe2b1f05bd946347U, 0x3c763480bdcb96c9U, 0xbde1df83bdaf59e1U,
  0x3dd4a8363c4c5e50U, 0x3e019009be107ef9U, 0xbdb26ac13dbbafa2U, 0x3d8ec8dabced1e48U,
  0x3ddae87e3d480368U, 0x3c2bfcadbe027ab0U, 0x3c080152be20b466U, 0xbbb853eb3d8e8aaaU,
  0xbe24109ebe4ed666U, 0xbc381470be0663b8U, 0xbde69c09bd93a292U, 0x3dd0b2e1bd0dc8fcU,
  0x3e1eb863bd4f815fU, 0xbd881af0be03f72aU, 0xbb0aac40bda835e5U, 0xbe23b7ad3d0f0670U,
  0x3e33d7dd3c09ece0U, 0xbd91fa1bbe3c24d9U, 0xbe0d273a3d900aeaU, 0x3d5bf6c0bdf09146U,
  0x3e02234d3df12b16U, 0x3dd7efa23df94ca5U, 0x3d822b82bddef8baU, 0xbe2d5800bdffb9aeU,
  0xbdd8d88bbe2c4386U, 0x3d6ebd883dfc6986U, 0x389572afbddc2c45U, 0xbe3dcc593e0bde27U,
  0xbd6045a2be30a7faU, 0xbda09872bddbe684U, 0x3cdbad18bdee56d4U, 0xbcfd3d433e03bc7dU,
  0xbd4f17bcbdeb6c14U, 0xbe0d0c8f3ccaa33eU, 0xbb5d168bbdd44ea3U, 0x3c4bf3bcbd603408U,
  0x3ddf70423c397130U, 0xbe3c2f07bc98bf98U, 0xbde62272be0acf16U, 0xbddc02e3bd9c02b9U,
  0x3e27780dbd1a5dd8U, 0x3cba5f983e0d87efU, 0x3d69ce193db1ec4aU, 0xbe3a6f9bbdd172c2U,
  0xbe15acc23c3938f6U, 0xbde947f9be0ac607U, 0x3d95a7b6be06ae68U, 0xbe1a40223e0c50b1U,
  0x3e0e6f053d20d6d4U, 0x3e295251bd1fe789U, 0x3c9d50b13ca77608U, 0x3ddefa1ebd41c7e5U,
  0x3ab93297be0ff9bbU, 0x3db6b78ebcd69c85U, 0xbcd54cb8be426a6aU, 0xbe2869953dc3f8d5U,
  0x3d4b8070be203bf1U, 0x3e338eefbdc945ecU, 0xbd480716be526e2cU, 0xbd721d7abdd926c4U,
  0x3d1971a4bdc2d3a5U, 0xbe21c01ebb9da3a0U, 0x3d32ebc43cd3ee30U, 0xbe00d6663e149d83U,
  0x3de9ae9e3dbf05ceU, 0xbe109babbb433400U, 0xbdd436f23dd983eaU, 0x3baf62c0bd091088U,
  0xbdc7ae083e1a0303U, 0x3cef5cd0bd4a3710U, 0x3c7009603ce6e448U, 0x3d26aca4bdfb8a01U,
  0xbd0471b8bda8d16aU, 0xbe24c9ef3c73f050U, 0x3e15de353d688ec4U, 0xbe1ba0febd9131d7U,
  0x3de6b4523db23fa2U, 0xbd98f0bfbe2075bcU, 0x3c6f8f00be1a3f0dU, 0x3dd4632a3dd10ec6U,
  0x3dd86a02bceb3048U, 0xbe02276fbdfbe938U, 0xbe08f2993de160e2U, 0xbc858ac03df85c9eU,
  0x3da835dabe085c9aU, 0x3dc0eb92bd9ad747U, 0xbe1fb1663d0d2becU, 0xbdeb9bd53d68c37cU,
  0x3d904840be1b7f13U, 0x3e1fab67bcebe048U, 0xbdcf4014bda069bcU, 0xbc8c1a50bd7b7c38U,
  0xbe3d35273ddf6752U, 0xbdd5bdde3e0f9e43U, 0x3db25c4abde98953U, 0xbd49f4f13cf77350U,
  0x3c9f9cf8bdb09901U, 0x3d735aae3deda43aU, 0xbe51ad403d3ebcf8U, 0xbda458713db7a96aU,
  0xbd8ed69d3dd01979U, 0x3d52d6b83da55bcaU, 0x3d93082e3e0e1355U, 0xbd51fa30be92e564U,
  0x3d9a1fdebdf9ee55U, 0x3d310facbdf61b86U, 0xbce7a5cd3e0bcd37U, 0x3db35ec2bd812e14U,
  0xbe3e6843be01aa8cU, 0x3d34e1a6bc9265fcU, 0x3e18b275bdc35d8bU, 0x3db1f8323e210185U,
  0xbdea6eb7bd194e80U, 0xbd8032ae3e31ddceU, 0x3daae48c3e044c1dU, 0xbc8e7018bef37f7fU,
  0xbda91b59bda4b35dU, 0x3d8ebff1bd5564b0U, 0x3cc258503dbd08dbU, 0xbde468c8bd811f96U,
  0xbd0fdd9c3de88b87U, 0xbdcbd81abd4f1064U, 0x3d482e8cbe3b1273U, 0xbdf1227c3e2df565U,
  0x3de2854fbd86e2e0U, 0xbd1eb6d8bdabc1c7U, 0x3df01eb6bd31ec80U, 0x3e146fb0bd2f4204U,
  0x3dd151d6bddf4250U, 0x3da3ee6bbd708d44U, 0xbe0f52133de25a2aU, 0xbdbfac67bb8575a0U,
  0x3ce88740bdda7aa4U, 0xbc794b863e96fef7U, 0xbd6c9fa6bc9950c0U, 0xbd3efc1abe66a56eU,
  0xbd813a6bbe22dfbfU, 0x3e150d753d989248U, 0xbe2b4ffd3d11ecedU, 0x3e152febbe1fc133U,
  0xbda8f1323e410770U, 0xbddfc1753ced2225U, 0xbd58aca8bd786288U, 0xbdbe01a23e0f261bU,
  0xbe274112be0f029eU, 0xbb6b5f803acf4f84U, 0xbd30b0d0bcadd4c8U, 0xbe0b6ecbbe981dacU,
  0xbe01e8baba1a0700U, 0xbd4effd93c8d4802U, 0xbd22309c3e086ab1U, 0xbe3397113e22dbb1U,
  0xbb65d2c03d41f49aU, 0x3e0de2063dc22776U, 0x3d3afe78bddcd1adU, 0x3d70a4893e092edbU,
  0xbe2296983e2867c7U, 0x3de2a492be0074c9U, 0x3dadacfabd8f143eU, 0x3dbadb14be159c38U,
  0x3b32f280bda8a182U, 0x3cf8ca41bd7ec539U, 0xbda3f2a2bda921e5U, 0xbdbe63a6bda0d2b2U,
  0x3e0e291b3cff26d0U, 0xbd78ab52bdaf500eU, 0x3e1944df3e1b4a13U, 0xbd0483ecbdf00520U,
  0xbd38efe43d016a40U, 0xbdd918463cc19740U, 0x3d9053eabd7f9eccU, 0xbe3a28113dbfe086U,
  0xbe34cfba3d00ea3fU, 0xbd8f2c14bdf8c0f4U, 0x3d2773403e0d38fdU, 0x3e0e91c7bc023db0U,
  0x3e0ca487be108510U, 0x3dd03d123be25fd6U, 0x3e08aedf3db3db02U, 0xbe1d860c3e014aa1U,
  0xbd8032c1bd50ad34U, 0x3c8920f0bd8ae1ffU, 0xbd00ce8cbdd133b0U, 0x3e32a5713cef0966U,
  0x3dd82916bdbddedbU, 0xbd01d75c3dd588a2U, 0xbe53a8043b5ecc79U, 0x3de490aa3d81a8c8U,
  0xbe4ddf4c3e34a829U, 0x3cf2f930bd9efe80U, 0x3dff27a23d3343d8U, 0xbcb39569bdd59a78U,
  0x3d81e846bdb6644bU, 0x3bb708a5bdcf0a8fU, 0xbdcafa563e27e429U, 0xbe53d5413d84c354U,
  0xbddab3cfbc931950U, 0xbe21c6aabe2d6013U, 0x3dd507eabe343d1dU, 0xbda19d60bc67b2f0U,
  0xbd8caccb3dac2860U, 0x3d08f484be3285deU, 0x39c49a003d859ee2U, 0xbd453ed2bdc37384U,
  0xbd571dd4bbea4468U, 0xbdc330a63d898ef4U, 0x3d929b92be04a28cU, 0x3dd351963c4e8a40U,
  0x3e2524833dfc1c92U, 0x3d8b0b563dde70e2U, 0xbd2599dcbe320cfaU, 0xbe236a10be15acabU,
  0xbbbb78603d6d1a38U, 0xbd587d9e3dc4ec9aU, 0xbe2ccd87bdc28ce4U, 0x3db435163d6d876aU,
  0xbd57af72bdaefd35U, 0xbe2018fbbdd6f438U, 0xbd598827394cec00U, 0x3e10546bbde5634bU,
  0x3deac7cf3dd24dbeU, 0x3d990afe3e09fa67U, 0xbda31f7e3e1cc7cfU, 0x3d75cb04bdcc5e0eU,
  0x3de7548a3dbf84e6U, 0xbe176af93d55cd24U, 0xbd903ce93c9fc5c0U, 0xbe469c22be2f5f6fU,
  0xbd923dca3e1d7303U, 0xbe027bdc3da44c89U, 0x3da5c04e3e1859dbU, 0xbe048319bcd59813U,
  0x3e19c84bbdc1c828U, 0xbe05a390bce362f8U, 0x3dcfbe3dbd8cacf2U, 0x3c5caedf3e1bbedcU,
  0xbe09217d3bd4af48U, 0x3de32b513cdf62a8U, 0xbdea20683ce91710U, 0x3cefdb48bd80b174U,
  0xbd5707123e1decb3U, 0xbdc1c52dbe39b326U, 0xbe3a9b283dea7332U, 0xbd8f1ab7be2917a0U,
  0x3df0f52d3e25d2cbU, 0x3d2b30193b7bfc85U, 0x3e16e7bbbb1cb45dU, 0xbe0a42f6be43169aU,
  0x3d1791d4bd711cedU, 0xbddd157d3d4416c0U, 0x3d0506813bc056d5U, 0xbca85cc03d4d49c4U,
  0xbdc649523d4fb268U, 0xbe02327e3d191074U, 0xbe0e8d1bbdaa9c81U, 0x3e01a0ccbdab2f46U,
  0xbe14fb493e1f40a3U, 0xbbb40c66be06e877U, 0xbe995082bc599d51U, 0xbe2446b6bd0e376cU,
  0xbbd516203cb09ad1U, 0x3d9409cebdfae8a1U, 0xbe107f493dbcc1d6U, 0xbb27abf0bd74987dU,
  0x3d145c7c3de776bcU, 0xbdde4efbbde281bdU, 0x3dd0a1aebdf0a938U, 0xbd4eea703dd8542cU,
  0xbda340cb3d273654U, 0xbbd8b4213dffbd1fU, 0x3dd65adf3d8e0406U, 0x3daf42e63e2fbf15U,
  0x3a9e9880bddad121U, 0xbe1287cebdaeedf5U, 0xbd312870be103562U, 0x3c1c3c70be40239dU,
  0x3e22903e3db8bbb2U, 0xbced72cc3d53c728U, 0xbd8093d23d97eb63U, 0xbc9f3b30be3fbed1U,
  0xbe0654aebe16db58U, 0xbc5a9b243dd858b6U, 0xbde9602e3ded1af9U, 0xbc9e1e3d3c887dc8U,
  0x3ca98e0b3e11f591U, 0x3e0f6a35bd6deee2U, 0x3c8e8450be0de232U, 0xbe1eb5ec3dae0956U,
  0x3d3e496cbda8394dU, 0xbdb8ebea3dd3778cU, 0xbd638bc9be205e1fU, 0xbd6cfb473deb391eU,
  0x3d581270bc9a0c49U, 0xbdf24b223dfd2669U, 0x3db4616b3e29c199U, 0xbdc167e1be31be7eU,
  0x3e108594be449de5U, 0x3da87566bd774092U, 0xbb5e7f7f3e11c322U, 0x3d818fe2be09e421U,
  0xbd027e55bde0a43dU, 0xbd63d4a73e1f1a8bU, 0x3e29699b3c3cf170U, 0xbe2fe7c13e14a737U,
  0x3dde3df6bca271d8U, 0x3ca754f83e01495aU, 0x3d0793c83da02ba6U, 0x3d34de30bdf92860U,
  0x3d93394c3db21f7aU, 0x3cf93eb53e19b376U, 0xbe2e0431bdbff3caU, 0x3d1404e0bce8c196U,
  0x3dc1a296bd22620aU, 0x3da5b50abd88b0f2U, 0xbd6d0a58bdf42bd6U, 0x3e0a8f523df24682U,
  0xbda52ccebe068e58U, 0x3dc06cbebe1afe9cU, 0xbcb816d03e0799d7U, 0x3d2f98023cea4650U,
  0x3e2d52a7be29da18U, 0xbd0e9a953db9492cU, 0x3c94ee9b3e2bd8d5U, 0xbdafc9fe3e1f257bU,
  0x3d6424c4bce29618U, 0x3d732850bd764369U, 0x3ce4c80a3df0a412U, 0x3db744d03d6889fcU,
  0xbdb4129d3cae1349U, 0x3dc96f9a3e08fe4fU, 0x3d74b3d23de31335U, 0xbe167f13bdc00bb6U,
  0x3d68f111be144166U, 0x3d2a817fbbc9a6e8U, 0xbc8bc2ccbe1d7524U, 0xbd39fb00bcc042b0U,
  0x3dcdd1f2bcc7e0a0U, 0x3d0cdf103b20ab53U, 0x3d129e36bdc2cf2eU, 0x3b68f080bb78332dU,
  0xbe1aaf813dca66a2U, 0xbde093d83da3f7d9U, 0xbe0eac54bca8a57aU, 0xbd7d331c3deeded0U,
  0xbe09e668bb6fdc73U, 0xbdc3746ebe299a06U, 0xbe0e84523deed505U, 0x3dc314703ca9da48U,
  0xbdff53323d6ec4c8U, 0xbc9206703ded237aU, 0xbe3212773c18cf40U, 0xbc69cc193cfb5660U,
  0x3e065ca33c945af8U, 0x3dc82bc13dfc1113U, 0xbdd23a98bd521458U, 0x3d2b09adbdf43174U,
  0x3d2b3264bd101e63U, 0xbe19cfd8bdfd62e5U, 0x3dce6a7e3e25b865U, 0xbda0c3ffbe4c9555U,
  0xbcd93cb8be96fda9U, 0xbdf5d880bb374980U, 0xbd8b2878bd564690U, 0x3dd6197a3d48aea7U,
  0x3caf8d28be24dd42U, 0xbe18930e3d544c17U, 0x3da19869bd6632a2U, 0xbdc594083e34e1e5U,
  0xbe2657623d696994U, 0x3d7ac070bc768d33U, 0xbdb03a2d3d23c8e0U, 0x3c887058bde9dfe3U,
  0xbd99f78f3c872110U, 0x3e231bf2bdd3b4f8U, 0xbe1cf54fbe01788eU, 0xbe33f443bc7c178bU,
  0xbdfa63a6bc6c3a27U, 0x3d7ce5dc3d22cca8U, 0x3daf8595bda77921U, 0xbd433611bd8b8c02U,
  0xbe09d3603e09991fU, 0x3bd881803bfdcf00U, 0x3d8eee1abe0fb110U, 0xbdb98914bdca79c7U,
  0xbc6735d03d104b08U, 0xbdc09d783df74d35U, 0xbe885d593e0fbff7U, 0xbd911a27be08b032U,
  0x3dc81c8abd1309a1U, 0x3dafcd0e3e0719f5U, 0xbe1e1842bd25edd8U, 0x3df2de93bdc966c0U,
  0x3e0baa39be070b08U, 0xbe13b828bbcbee60U, 0xbd7f9e96bce1f93dU, 0xbb606997bd668becU,
  0xbe329b1c3b884fdcU, 0x3d9cc77e3cd1872dU, 0xbd199c52bdcdec6cU, 0x3dc514c2bd0480a0U,
  0x3dc2810abd56977aU, 0xbd85ad9abe268127U, 0xbdfbd9513d9572daU, 0x3d759b44bdc78342U,
  0x3dade147be0ac47eU, 0x3d15b8f3bdb214baU, 0xbd914dedbdab23eaU, 0xbd261f14be0ef223U,
  0x3e27d95d3e01a8bdU, 0xbd947eaa3e00523fU, 0xbe09582cbdb9c68dU, 0x3b85d64b3c278220U,
  0xbe1378c0be30431dU, 0x3c98c9003e18e8efU, 0xbda66127be0f166bU, 0x3b6ff59d3e09e273U,
  0x3d51b3dcbe27a195U, 0x3d9027e13dd4a266U, 0xbd637189bdeba922U, 0xbd5801563cf5fb68U,
  0x3e0e86713cb84456U, 0xbcc2fa4fbe426654U, 0xbe045caa3df9085aU, 0x3a94cf0e3e274e9bU,
  0x3da3897e3d02aa0fU, 0xbbb095c03e3275d7U, 0x3c6cc9693cf052cbU, 0xbda8c6b5be0fa339U,
  0x3d52a0cc3db589a8U, 0xbc9803ca3e17f7abU, 0xbcbf0b963de219baU, 0x3b237980bd2af160U,
  0xbdf14b5ebdca91bbU, 0x3dd1d0823d1874d3U, 0xbd9c2a7abdeda394U, 0xbd12e55cbcc9036dU,
  0xba927f9e3e1d8c53U, 0x3d7fc2683e077859U, 0xbe1001cebdd2b376U, 0xbde8f5133da65b7aU,
  0xbe1c6624bdb01d0eU, 0x3d76e4b03dce3466U, 0x3d01666e3d72014fU, 0x3d12092ebdd8666aU,
  0xbc09eb603c98cd10U, 0xbc8dbee0bd28018cU, 0xbe1713263e0cdf05U, 0xbdb2052e3d814bd2U,
  0x3daae6563dedad02U, 0x3dd289ed3de4132eU, 0xbe0467a23dc15992U, 0xbdd57257bdcdc2d6U,
  0xbe16565dbe2df019U, 0x3d874e023e0851c4U, 0x3d5a6b0ebdbdf564U, 0xbd82e379bed78fadU,
  0x3dd6c122bf1bbaa7U, 0xbdde56a63e2fa1efU, 0xbd568177be14ddf3U, 0x3d17d8113d6345d6U,
  0x3dfbad6dbcf9723bU, 0x3c3babce3d6739abU, 0x3e0a7a613ddd31c3U, 0xbd2f1a30be1ebf8cU,
  0x3cb6f5b0bca40430U, 0xbdae40733c81e1c3U, 0xbd62d354bc3b1400U, 0x3d227a74be0b7e6dU,
  0xbe1c44b03ca5e560U, 0xbd25daa5be26a99cU, 0xbe225c99bc01894fU, 0xbcdbdce83dc4b781U,
  0x3da8444abece9905U, 0x3d63ff61be0da8a2U, 0x3da692aa3dfb32fbU, 0xbc195823bc044ae0U,
  0xbdef279fbd7253e4U, 0x3de80cf6bdff77f9U, 0x3e27943f3e0a8ba5U, 0xbd7861ccbda887d5U,
  0x3dab2e0e3e2ec765U, 0xbe15e9773e11f48cU, 0xbd343eff3d9e8255U, 0xbd92d5f93c0b8910U,
  0xbd58854ebcffa97dU, 0xbe1208913da2f84bU, 0xbb8521833d4184f4U, 0xbe03b948bdb47d51U,
  0x3de85c123d1f855bU, 0xbda8c8233ddf98aaU, 0x3dac8f2ebd8ae4bbU, 0xbe13e163be08d06fU,
  0x3d22dce8be683e06U, 0x3da409843db329dcU, 0x3dd0b712be0e0cbcU, 0xbe2c5491be20d227U,
  0xbced9830bc73c940U, 0xbdbd3c0a3dcebb49U, 0xbd013b9f3e15f05dU, 0xbe145ee4be94ce42U,
  0x3e127ebe3c9db4a0U, 0xbe0b3059bd8c1dddU, 0x3d2aaa5cbd6d6ef4U, 0xbd01e5283db8713eU,
  0xbe203d133cbab497U, 0xbdc70ebbbca10210U, 0xbd9fba723d52647cU, 0xbde4c8f13e1084fdU,
  0xbdf54ee53da8e5baU, 0x3c990fe03d004308U, 0xbd922fa0be16489eU, 0xbc3dfc88bcfbf5d8U,
  0x3dce50bebe2fda1bU, 0xbd72a331be1950ddU, 0x3d03078d3e03c849U, 0xbc45a70dbe33175bU,
  0xbd12e5a03e2e3b75U, 0xbdba4d163d6fcb50U, 0xbb9c5c66bc8a1a88U, 0xbde2b1bc3dd0a92cU,
  0x3df48b46bd8bbe84U, 0xbd8ecca63d156c38U, 0xbd727f41bd487cd0U, 0xbd2985f9bbcdb080U,
  0x3e035fd73e030774U, 0x3e008118be055572U, 0xbcb3f5e03daba4baU, 0xbe0e5f1fbe1c4699U,
  0xbdc488e1bdec3513U, 0xbc09f580be4eaa73U, 0xbe523ba7bdaa10beU, 0x3dfaf0c23c243e11U,
  0x3dd5b5653d04d6f0U, 0x3d5bf8f83d5ddd44U, 0xbdc2cece3d92c474U, 0x3ccf81083d931488U,
  0xbe04bdb5be25db43U, 0xbd087d983db22afaU, 0x3cf323cbbe17356fU, 0xbde24c02be1a58c0U,
  0x3deb536d3e20cab7U, 0xbcf02fb83dfe857aU, 0x3c8b9628bda0814aU, 0xbde1a7bd3e2fb8a7U,
  0xbdad0f5b3e09fdb5U, 0x3dee1d23bde377c1U, 0x3ebe2149bc932da2U, 0x3d8b5df1bccdf7f8U,
  0xbc75a330bd5844e1U, 0xbd03d36ebce2e4f3U, 0xbdb8b459be1488a1U, 0xbdc489d33e0ee854U,
  0xbd36fbec3d2761e2U, 0x3e28cc41bdbc17d4U, 0x3d82c3ec3e167057U, 0xbddc6a30bd96780bU,
  0x3d2469e0be7e3bd7U, 0x3e19f0e03cfedc80U, 0xbe272c31bb745964U, 0x3d9605f2be33bf7bU,
  0xbddb03ab3e349713U, 0xbe16ff79be460665U, 0xbc58cc50bdfa4171U, 0xbdc4561f3ed165b7U,
  0x3cd50ca53cfe1258U, 0xbe14fc993d494485U, 0xbe18f0fa3ca89445U, 0xbe224d98be4e1005U,
  0xbe08150a3d30137bU, 0xbe32d7a63bf04f60U, 0x3e3ff3733d5b8731U, 0xbcd54ce63d162c90U,
  0x3dab8b843c5985e0U, 0x3d2e1e28bd3649a4U, 0x3deb58ea3ba711c0U, 0x3c1254eabd89480cU,
  0xbc22b4d0bcfdb2f8U, 0xbd47c649be3dc1eeU, 0xbdb93101bac4599dU, 0x3dd851bf3d3ef09cU,
  0xbe06b4a8bdeb24f3U, 0xbddb0bc93d8ed84dU, 0x3d87356abdc9003fU, 0xbdaa9a04be2e1159U,
  0xbe27896ebdebd25bU, 0xbcf738b8bd17481cU, 0x3c33728fbe2990d6U, 0x3d97ab073da8de36U,
  0x3c0710d0bdd02496U, 0x3dcbad52bdf01a84U, 0xbd9c761b3df701d6U, 0x3de2534abde30614U,
  0x3e2e6abf3d192bc4U, 0x3c5656703d8a1d32U, 0xbe4db38b3a824e80U, 0x3e110c4f3d474af6U,
  0xbe0da057bbc384e0U, 0x3e17862bbd3721c9U, 0x3cc2ce083d243312U, 0xbda4336cbd9c1eb3U,
  0x3d7b35103dbfb9eeU, 0x3d9d9bde3d6e15e8U, 0xbe3db4aabcf7c358U, 0x3b8046babc889548U,
  0x3e0d67083dd59a76U, 0x3e17d9efbe0671f2U, 0xbd43bcd0bd6c0c54U, 0x3d74d7933c8a6850U,
  0xbd94e229bdb3289aU, 0x3d737414bdc219f5U, 0x3cfc691b3de38b23U, 0xbd8f90b43c9e8030U,
  0x3d9aa4e63ca7b478U, 0xbd2864db3e2c6920U, 0x3dab27993d112134U, 0x3dc67104bb11b18dU,
  0xbe2f78353ef70b73U, 0x3da6bfe63e2b3ce8U, 0x3daca6fd3d970240U, 0xbd8c034e3d33e8dfU,
  0xbda8bab1bdf2f409U, 0xbe42e76c3d957378U, 0xbc4ebfa7bd6c6066U, 0xbe26570dbe21dc50U,
  0x3dac26d2bd37b2a0U, 0x3db851a6bd6abc8bU, 0xbd588d843dc5ff56U, 0x3ce754783ca2cf2fU,
  0xbd233e94bcdc0b38U, 0xbe028e283d205380U, 0x3df69ffebd9d5a26U, 0x3cdeea613def7699U,
  0xbdc1693b3d874729U, 0x3dc63a603c9fa3f0U, 0x3c87c969bdcaafb6U, 0xbdeb89103e28d79fU,
  0xbdb1a9b03db524daU, 0x3e30a3abbdbf4d38U, 0x3c84fc603e2ecc7bU, 0xbdacc5ddbe0b6a7fU,
  0xbb709cc03e1e51fbU, 0xbdd2f3e8bd2abcfbU, 0xbe1482143ce03c36U, 0xbd657f693e071437U,
  0xbe16f29fbdc6757bU, 0xbda60f4f3d766589U, 0x3e0a2801be0c84f6U, 0xbdc643c5bca715afU,
  0xbe1ad9fabe315b43U, 0x3d91d792be25c268U, 0xbdd6b04fbe019e8aU, 0x3cfe6f33be06ada7U,
  0x3e07bf33bd619301U, 0xbbd0f0c4bbcba19bU, 0xbe28c3613e212319U, 0xbe1435043ddd250aU,
  0x3cd5dd803df06242U, 0x3e310d393d5d7dfdU, 0xbcf3044a3dd628beU, 0xbe10bd22be52081eU,
  0xbd5a3fb1bd6e3ae6U, 0xbde426cb3d763b9aU, 0xbe0db050be06d1aeU, 0xbd92ac6ebe4c8643U,
  0x3dcfbc923da8becaU, 0xbdbe806dbc8e7fb8U, 0xbdf459133d1957a9U, 0x3cdbe75fbd5ecf2aU,
  0x3d908fad3dc05dbaU, 0x3cf0abf8bd97557fU, 0x3e0d814fbe191228U, 0x3c88618f3e201e35U,
  0xbe26ec46be2323acU, 0x3d35a3c9bdc63e79U, 0x3c11e5753e226eedU, 0xbdf5c78ebbce7400U,
  0x3db25346bd026b37U, 0x3d9898153d2209adU, 0xbd8f3c913e08647dU, 0xbdf447c53da61378U,
  0xbd6234c4be54e1bcU, 0xbe1ba470be324f1dU, 0x3cb6ae693c87bf0eU, 0x3c50c55c3d866305U,
  0xbe3f4007be3d5334U, 0x3ca46974be34323cU, 0x3c6f98573dac4e7eU, 0xbd2e7454bc6402f0U,
  0x3db913463dac1c3aU, 0x3d970b3abd4fb185U, 0xbe4acb5bbc57d6c0U, 0xbe2217b9be21eb68U,
  0x3c6e21c63de6d39aU, 0xbe1772d73c20b93aU, 0x3e120e79bdb6480bU, 0x3e1eb1413c880484U,
  0xbd239890bc855d44U, 0xbe0caea03e049e89U, 0xbda076063e06fab4U, 0x3ddc98aa3d2aa53cU,
  0x3d10b17f3e0d0ed1U, 0x3d7859e0be042797U, 0xbe04b7d73e1da6e7U, 0xbd62cffdbda7556fU,
  0x3e32d5d9be213b01U, 0xbe1fd8a6bbbb1389U, 0x3e203d163e1be417U, 0xbdb0134abe1df778U,
  0xbe2874eebd02a4cbU, 0x3d0de5d8bd18935dU, 0xbe068e4ebcd45ee0U, 0x3c8b2404bb3f94a7U,
  0xbd2721393c6b0f57U, 0x3d595c183c82a558U, 0xbe4bfde83cfc3685U, 0x3d3cc66b3e166be2U,
  0x3dff5f69bdd929b0U, 0x3d95dcae3e017b2fU, 0x3e054bb33c15e2a0U, 0x3e163d81bd3934ecU,
  0xbd822aa1be12c88aU, 0xbe074bbfbd115405U, 0x3d56dd2cbdc96875U, 0x3e23479fbdfe72acU,
  0xbe4e22bdbbe072c0U, 0xbe38580e3e0db97bU, 0xbe1e18edbe358c35U, 0x3def83f2bdf3b3f1U,
  0x3e0f0dc53e1c3428U, 0x3d966dfcbd880c42U, 0xbe182973baff57e8U, 0x3db424c43d229e60U,
  0x3bc3ce4d3e31e9a5U, 0x3deb54b2bda7ed3eU, 0xbe0c4953be30b4bfU, 0xbe21d6f8bd7254e8U,
  0x3db42122be32cb96U, 0xbe47f6343e08aee1U, 0x3be4d6633de0aaebU, 0xbc0ad3f43dd1e25eU,
  0xbd70fd4cbdea5120U, 0xbe2b0b0bbe5165adU, 0x3ddeb4b8bcd2adb0U, 0x3dfb8b49bd261f23U,
  0x3e17672fbe548ef8U, 0x3d0031943d79921cU, 0x3db5553ebcf72080U, 0x3cd5c5673e1e4a97U,
  0xbd6db5903ca7b021U, 0xbe64a316bdebd07dU, 0x3e2db9c13d642118U, 0xbdf30c18bd279420U,
  0xbd9ae7413dcc586aU, 0xbd3dde403b4e4ae2U, 0xbe3ba391bd8c1a61U, 0xbd84de6cbc8d7aa8U,
  0xbe1441b3bd9d70aaU, 0xbd1ea008be23caaaU, 0xbe171901bdc66545U, 0xbdf04a3f3d9d4dbfU,
  0xbd2d7da43c75aaa2U, 0xbe2250c43de4a196U, 0x3c966efabe131bb1U, 0xbe5f9926bd9c4113U,
  0x3d7d81d03df9270aU, 0xbd908609bd7cf51aU, 0xbda28c7bbc414390U, 0x3e02dc5f3ba11b60U,
  0x3d959bfa3e06edd9U, 0xbe28c4593d85050eU, 0xbd9191613e2adc52U, 0xbdf723cebd9ba369U,
  0x3e1dfe3bbdbdde4cU, 0x3d8f24013c827ecfU, 0xbe265c083d893dbaU, 0x3cb774a3be449a05U,
  0x3d92bebabe19dd33U, 0xbd42e38cbd333a64U, 0x3d0fb1fc3d369dbfU, 0xbe103530bdee5ad7U,
  0xbd527b303db19070U, 0xbe1587b2be1544d6U, 0x3d437eeb3db49266U, 0xbe041d723d963a1eU,
  0x3d893bbc3dd7f912U, 0x3dc10a4e3c907879U, 0x3e064a423e320ea7U, 0x3dbc1b1ebdad5225U,
  0xbde1f07cbe14abdeU, 0x3df421743e0791feU, 0xbe1267b2be4057f9U, 0xbd8329c3bdeab000U,
  0xbd92909c3dbe026fU, 0xbd9386553c97cdc8U, 0x3dc244e03d488524U, 0xbd599894bd22fef0U,
  0x3d98ebcabe2db074U, 0x3d4c9b103d60d4d0U, 0x3d8e39d03e19700fU, 0x3d5f4bbc3b8972c0U,
  0xbd254e2c3c8cf650U, 0xbce434f6bd9c265aU, 0xbdf674603cb817b0U, 0x3ce503bf3a164000U,
  0x3df52ff6bd18cad8U, 0x3dbde06b3dd99e46U, 0xbd98be24bdd72a0cU, 0xbe13171fbe343192U,
  0x3dcbadf6bd391f00U, 0xbe277130be199b72U, 0xbe328763bd86953fU, 0xbd727f383dfdd5b2U,
  0x3db53892bd376781U, 0xbe102d1abe241a13U, 0xbd6606ecbcb22fd0U, 0x3a989900be05aeccU,
  0x3e0597f3bd0d3274U, 0x3d3a94ecbd269a3fU, 0x3d1fe39fbc659740U, 0xbccb65d83e2231cfU,
  0xbd85bc253d91eb42U, 0xbe18a987bdc6dd24U, 0x3e15fcc5bd92a001U, 0xbd2d3650be217382U,
  0xbe218e52be0086f5U, 0xbd166c04bda4463fU, 0xbdd660a0be519febU, 0x3d0c663dbd8b3db7U,
  0x3d1a55953dde7a06U, 0xbe111342be1144b0U, 0xbc2665b0be0a9720U, 0x3d5df3ba3dc15d4aU,
  0xbe179b0c3cb70258U, 0x3cc4f6b23dace034U, 0xbe0cde70be1dd3d1U, 0x3c35ad7abcbc6b30U,
  0xbc510e10be10bf6fU, 0xbb64afb03e9e4773U, 0x3ddabe643d924710U, 0x3e259557be1f24f0U,
  0x3dd64f763eda6517U, 0x3e28918f3df6227aU, 0xbe046916bce0dd53U, 0xbd442d123cb11a76U,
  0xbdbf49153df8d488U, 0xbe031e993d9a788fU, 0x3d92d6883e48b9edU, 0x3c99bfc83d57f42cU,
  0x3d6288e03daa7b6eU, 0xbd684c6ebe4438a6U, 0x3c345ba13dd3f10aU, 0x3e211f8fbdf815f9U,
  0xbdeef0163cf2dd58U, 0x3cacb0abbcdd79a5U, 0x3e26331fbdbb148cU, 0xbe2a47733e70d908U,
  0x3ded1aa6bd2ebeb0U, 0xbd0038c0be2b0005U, 0x3da763db3d2f5667U, 0x3da7bb4fbdfc3c48U,
  0xbdae6283be128332U, 0x3e322c553de3d686U, 0x3d8c8adabd8f246bU, 0xbe0e2cdbbd0dd610U,
  0xbcf24ae0be067e1aU, 0xbdc15dc8bb0b3fedU, 0xbe21e23bbd7cd232U, 0xbdc350b1bdf29870U,
  0x3de19f16bdca5508U, 0xbc112a86be156de8U, 0x3d4e2a173d8b6742U, 0xbcc8ebaf3dabcbd8U,
  0x3de4405abdf2e3cfU, 0xbd91e496be3118baU, 0x3e04300bbc56b441U, 0x3ced81363e120924U,
  0xbe09cf13bc379a8cU, 0x3e0f98bfbc331170U, 0xbdd3b09f3d909af6U, 0x3e172e733df2b9c6U,
  0xbdfc4e3abdd6a846U, 0xbd8ea2c6bca5b97dU, 0xbdbae45cbd86c50bU, 0x3cb883e03d73f8d6U,
  0xbdeb3dd4bd964603U, 0x3e0f01fd3e038c62U, 0x3dad4a2ebdeaa547U, 0x3c70dff03dd0adedU,
  0xbddfe778bc19557aU, 0x3d0485ec3d57059cU, 0x3c2b2c583d74bac9U, 0x3d8ef38f3ce2de08U,
  0x3dcd2693bd863ebdU, 0xbcf2ca28bdaee836U, 0xbe00953f3cd83fa8U, 0x3e1d9493be2e39a8U,
  0x3cfe0dc03d8b7ca0U, 0x3da5b35fbde3472bU, 0xbd8a39a43de4898eU, 0x3d8b529fbd0f8fa8U,
  0xbdedafa43d7197ccU, 0x3e01134cbe04beeaU, 0xbe088bda3df8ddfeU, 0xbdcc6082bdb9f867U,
  0x3df9f3363d2c597cU, 0xbd1712ac3d6076a4U, 0x3da3d7923d636580U, 0xbe39b2b9be11196aU,
  0xbd6ee2af3d0a0ec9U, 0xbe2f415cbe2a4908U, 0xbc4bd84a3b88ff20U, 0xbb5a2fc0bd37d0c4U,
  0x3e21cfc3bb3b7800U, 0xbdbe0e4bbde232e8U, 0x3bde1b36bddad697U, 0x3db57dd6be4b21feU,
  0x3de5834bbe2e2d3fU, 0xbe1a998fbccb8a70U, 0x3e0ba11fbda62a16U, 0xbb9226c0bdedfb6eU,
  0xbe0e289fbcf4f0eeU, 0xbe1a2eeabc289290U, 0x3df9243b3debf928U, 0xbe5572983e0674a1U,
  0x3cce12fe3e01d29bU, 0x3d05b3f0bccea030U, 0x3d3ab64cbdc701acU, 0xbe335500bd964225U,
  0xbe0f95633d456f28U, 0xbe0e3a96be422fd0U, 0xbdf7cd983e1f602bU, 0xbe1590c4bcf59ae0U,
  0x3db24036bdfc72d7U, 0x3d8e1282bae0021fU, 0xbe28cc943e2d5d2fU, 0xbdf5268bbd0f056bU,
  0xbe18282b3dcef7eeU, 0xbd899dc3be072160U, 0x3d6525243dff4abaU, 0xbd8f4c64be093dc0U,
  0xbdca78463d6600ccU, 0xbe1272cdbdc8089bU, 0xbdfc4004bd459084U, 0x3b3b78c03cb69190U,
  0xbe1870fbbd849153U, 0xb9a9fe003ddc6573U, 0xbe1fbe863e24c4c7U, 0xbdac5f323ddad90aU,
  0xbcf9b914bd65a41cU, 0xbd2fcd50be369fffU, 0x3e2c9a033def4c92U, 0x3d9bdc22bdbd3525U,
  0xbe04833a3da3466fU, 0x3d403868bd02d50cU, 0x3d1f5bbfbd3b0b3eU, 0x3d5a1ae8bd3b4efcU,
  0xbd453539bdac4355U, 0x3e1cb41f3e252003U, 0x3d4eef98be114a26U, 0xbdc88e603df30c06U,
  0x3d351000bd31dfe8U, 0xbcfa8a053e1186d2U, 0xbdf238c53e0118aeU, 0xbd78ada93dd283ceU,
  0xbdf95890be1badedU, 0x3e08b1ccbe076323U, 0x3e0ad7bcbd9ffad4U, 0xbdfeaa26bd715283U,
  0xbe115f6dbddda99cU, 0x3de99312bce9d1a8U, 0x3d25ac4b3cdc1e2cU, 0xbd87e6c0bc8882bdU,
  0x3cdde89ebc80b784U, 0x3df12aa3bd516643U, 0xbdee29bc3cd8b670U, 0xbdabdf9c3d94d5b2U,
  0xbd0ad00c3d040530U, 0x3d20f2683dee3a65U, 0xbe18de79be23d5c9U, 0xbe1462a0bcd7af7cU,
  0xbd135b633e2ebf63U, 0xbd55b9063d478288U, 0xbd974e123dbb285dU, 0xbd64b01c3d0b4dddU,
  0x3e177ca7be0d7e7dU, 0xbd3278b83e0b8147U, 0x3de30dbabdafdf81U, 0xbe2fd69a3e09229bU,
  0xbc6b714b3d98a2b2U, 0xbe295adcbdccb8b9U, 0x3e2fa4093e12817dU, 0xbe3c7f47bdcb77fbU,
  0x3e1166853de4d5a2U, 0xbdec1e783dde0ecfU, 0x3ad5fb803d12a22cU, 0x3d3e0bae3d5b2684U,
  0xbdfa85f73dbadc8aU, 0x3d784e2b3e047ed6U, 0xbdd171633e085673U, 0xbd886fbfbd024608U,
  0x3e02f7ab3e0af6a5U, 0x3d6a64343e2fc079U, 0xbe20eaa53de5b7aeU, 0x3d3c63763e3013bfU,
  0x3defc812be22e2abU, 0xbe46c179bc9d9e58U, 0x3df28ae6bd2f08e0U, 0x3dfaa476be223958U,
  0x3dc92b2abdfe91f7U, 0xbde7c587bd3e77e5U, 0xbd10b3d2bdb2a0cbU, 0x3d867748bdcc4845U,
  0xbdca24103dbee9faU, 0xbdec73dabcef89bcU, 0xbe0482b8be0003d3U, 0xbddbf662bde839cfU,
  0xbe2369ce3c096fb8U, 0xbcd6a7e8bb9eef40U, 0xbe082e673c851d71U, 0xbe2850fe3db0f6aeU,
  0xbc4473b0bc555bf0U, 0x3d89862ebd87ef88U, 0xbe1557e53d6b3c58U, 0x3cc878413e2aa37dU,
  0x3e29892d3d5be748U, 0x3d5bbec4bd35c5eaU, 0xbcae2614be3378f3U, 0x3d24a6eb3dd72a96U,
  0x3e2af6e1bda15e43U, 0xbd33795e3dee727fU, 0xbd1b8d57bdcb3e3eU, 0x3da4168dbc4b93cbU,
  0xbd5b388cbd79d231U, 0xbc750b803e074353U, 0xbe3ea636bd5ccf22U, 0x3d2a934e3d82ba58U,
  0x3d3b8088be4613faU, 0xbe010abbbcd675a0U, 0xbddeb8fbbdafd512U, 0xbdaf7887ba1d4c00U,
  0xbe31087fbdd4db65U, 0x3d6386983d2dd124U, 0xbe2645acbde825e5U, 0xbdd9ae883c111fd3U,
  0xbdc075873dc824f6U, 0xbd8e5d0ebde2bbd2U, 0x3d5e9d5c3d48a12aU, 0x3e1b71d9bdd89e44U,
  0x3d09e638bdd60674U, 0x3c37e2c03de1fa5eU, 0x3db73d19be0c631aU, 0x3c7150b23da1e292U,
  0xbdd91a993d8e510eU, 0x3d993ceabd905d88U, 0xbc0f8020be0f4f79U, 0x3d9446efbe0c9a8aU,
  0x3e339c593dfe4726U, 0xbe54c4683dd8a933U, 0x3d4543503d845201U, 0xbe166ec83c95ca90U,
  0xbd2bccb8be1b819bU, 0x3c723ea33b010eeaU, 0x3c52e16e3d9fe75eU, 0xbc625cb5be00419eU,
  0x3d5b12963d4ac5c6U, 0xbc0be780bdf48d72U, 0x3cce32e1be028600U, 0x3d05b8493cd19e8bU,
  0xbe1466053d6c6c9aU, 0xbe0cf198bd4a5d9fU, 0x3e25f848be2a5cf1U, 0xbe1b40f83cb4a7b0U,
  0xbe114cc43cec1ca0U, 0xbd810b413da9689eU, 0xbe29ebafbdc2ecf7U, 0xbd8800593d96e4ffU,
  0xbdbb8ba1be03024eU, 0xbe05b82a3dea9a2cU, 0xbdacc94f3d9f52b0U, 0xbe2352c8bd08c433U,
  0xbddf45463e03b41bU, 0x3d8a76c93e18010fU, 0xbdae0f733de6fc62U, 0x3d827d3dbb6b87c0U,
  0xbcd54d83bdcf0886U, 0x3de69f523d054158U, 0xbda321e13e200f29U, 0x3b06306cbe16d9f1U,
  0xbe249f99bd9efbebU, 0xbdeea052bdf514c2U, 0xbe4be5193dc21eabU, 0x3db531ffbd963e8bU,
  0x3da52676be2a38ecU, 0x3e0a65e4be470ce8U, 0xbb5d8b1ebd23f62cU, 0xbe92b191be478febU,
  0x3c238eaabe9b8666U, 0xbcdf94f0be146802U, 0x3d54b51ebded00c7U, 0x3c258b0c3d27e128U,
  0xbd59225e3e166c1aU, 0xbd1f46a43dc02ce3U, 0xbe051077bdffcb2fU, 0xbe27c219bd7b2488U,
  0x3cc952183d369de0U, 0xbc2c7a903eb258deU, 0x3e424af0be22fa51U, 0x3d9e0146be1dae3bU,
  0xbdcf4e63bdf5c590U, 0x3dc82b0a3d4df0b6U, 0xbc1aaf10bd4b139bU, 0xbdf23b903d9e9c4bU,
  0x3d8bb92c3d9d07deU, 0x3d18d05d3d4ddab8U, 0x3cc10dadbd9d4136U, 0xbdb20be2bbf857a0U,
  0x3c1fff1f3d81ba9eU, 0x3e05e7b5bd769ddaU, 0xbc107060bda4a527U, 0xbd20e7553e20479dU,
  0x3e1573fdbdf9c208U, 0xbe4c4f993daabaf1U, 0xbe09e50ebc03ffcaU, 0xbde1c6123e0c78f1U,
  0x3d8807ec3d9c9bc4U, 0xbe07a92c3dec96e3U, 0xbbf8e50cbdd3a822U, 0x3e278883be7c3972U,
  0xbe273d643e52a018U, 0x3d838a36bd75c3b6U, 0xbad1f70f3deafad6U, 0xbd464583be1a3f50U,
  0x3e34da35bd386ba1U, 0x3c8f93f83e1acf64U, 0x3e139ac2bdbe8845U, 0xbd9587343d1f5230U,
  0xbd3dedc4bd8e0933U, 0xba8b1e00be18c9abU, 0xbdf038943db0de5eU, 0x3e0762c9bbd302eaU,
  0x3c521f9abcc220c8U, 0xbb69b8d8bd68a8a2U, 0x3dded1c23de9cab8U, 0x3dc8378ebe0a8e1aU,
  0x3c6f8660be381b00U, 0x3e33cbc2bd5fbebeU, 0x3ce6a5283e0a90e8U, 0xbdb3c5443ddeeb9aU,
  0xbe21cb1ababfa600U, 0xbd8a7b383e169633U, 0xbe245a773d83a516U, 0xbd5b95663dd227feU,
  0x3e2dbecbbdf6b508U, 0xbe1fcba7bdd94fa0U, 0x3d6174cc3e014c85U, 0x3e14ac11be0925d1U,
  0xbe2db8ee3df5f21eU, 0x3d9ab836bde177f4U, 0xbe12d05f3d69c608U, 0xbc7a39b0bd7d374eU,
  0xbbbe3080bd62e7e4U, 0x3d505660bb01ce80U, 0xbc588b10bc837a90U, 0xbd58633abd8e007eU,
  0x3d78fb7cbd6798bcU, 0xbdff614e3dc753baU, 0xbd4d0368bdbd21a8U, 0xbe1fbdaa3e2942d9U,
  0x3d1c1794baae2180U, 0xbdeea8863e209b81U, 0xbe132f2e3d9a99d2U, 0x3d5b4440bdf88f8bU,
  0xbcaf70f0bdb96e9eU, 0x3e21f991bd9b41adU, 0xbe33f3c63db1a25eU, 0x3ccbb9d0bdcd49caU,
  0x3da197eebdd7ce4cU, 0x3d3268903d8faf40U, 0xbdf05c5ebe2cd6a2U, 0xbe12646dbd9caca5U,
  0xbe1bd7653dd7f696U, 0x3e015a2dbdb805e2U, 0x3d75cd4c3c403600U, 0xbdcb1a503dcd032aU,
  0xbd768fb63d48adb0U, 0xbe1529a2bd9344a8U, 0x3c59f9b03d2c8c40U, 0xbdb6cde5be101163U,
  0xbce0af70bd80f4a6U, 0x3dce460ebd1ab4d4U, 0xbd70b1263dfc044eU, 0xbe1c5a2a3de0e6d2U,
  0xbb991820be3066d5U, 0xbda248bbbe16fe14U, 0xbe2fb455bd745da6U, 0x3cb00b70bdce0ca4U,
  0xbde19fb5bc9a02f0U, 0xbdb2345dbddc2715U, 0xbe0bc742bc772020U, 0x3c94ec18bbdc57a0U,
  0xbd34bb10bd013ec4U, 0xbe000fe43d3a09c4U, 0xbe2273183c6ac760U, 0xbdce32893d3a0350U,
  0x3d0ef8043d8eb5faU, 0xbd9131f4bdfdf16eU, 0x3d47b88c3e158559U, 0xbe1f9fa8bd800fb4U,
  0x3e33271f3de834d6U, 0x3ca181803ded0bfaU, 0x3d749a54bdfdac17U, 0xbce7c6c03e2a9fb3U,
  0x3e16a6be3c779da0U, 0xbe1e72edbe26f00bU, 0xbd6b49363d1dd414U, 0xbdd45bb0be0151b0U,
  0xbccb4fe8bdb639bcU, 0xbd93f485bd3846dfU, 0xbdcd1820bdbdc866U, 0x3d426854bc7fa4e0U,
  0x3e1379fb3d42599eU, 0x3d1b7656bded78a2U, 0xbca855603e1b8521U, 0x3e9ef7babee1beddU,
  0x3dd15303be3af08fU, 0x3d9e9c6e3db4db7aU, 0x3cd26fb03d2a99abU, 0x3dec47143c7ba751U,
  0xbd1ba4043dc4448bU, 0x3e537fd5bdf06a90U, 0x3dd629febd5b7533U, 0xbe0a4cbcbd4670c4U,
  0xbe20bb763e179465U, 0x3cb113e8be187ca5U, 0x3d3e6cd0bd316a50U, 0x3e1f967fbe5f2277U,
  0xbd52f38a3e2c33b9U, 0xbe07d94d3d8c707bU, 0xbde01eccbd9c230cU, 0xbd24522cbca37b0aU,
  0xbde9c93bbef1a269U, 0xbd730d2bbe05fee0U, 0xbd0fa2f63e03c8bcU, 0xbd1368dc3e17136bU,
  0x3d8cb7d83e00c949U, 0x3dace03ebe05626bU, 0xbb0d8040be2f0a38U, 0xbe16302fbd114318U,
  0xbd193634bb285ac0U, 0xbe151acebd9df6a8U, 0xbe018fef3dc0bdd0U, 0xbc47c6593dae26faU,
  0x3dc4f396be11afefU, 0xbe4e1c19bccdc016U, 0xbde9f439be32d7f3U, 0x3e0b6ff4bd6ba724U,
  0x3e0f7bc53d39302aU, 0xbdd9acda3e32533bU, 0x3da5a4d33d67bff0U, 0xbda0dc713db1e2d9U,
  0x3dafe7c2bdabf357U, 0xbd49058abdc6c78fU, 0xbd81722f3db9e09eU, 0x3de00192be2def93U,
  0x3e192243bda217caU, 0x3d9d4d16be405177U, 0x3d2e86033e0c158dU, 0xbd18bb4c3c664e7aU,
  0x3e0167303ce40528U, 0xbcb5fe78bda26ad3U, 0x3c697260bc9ff93cU, 0xbd686b8cbd1df158U,
  0x3e02dd23bdd9ed89U, 0x3de283153d15a9b4U, 0xbd4ef5e63d740e59U, 0xbe4b267f3d49275cU,
  0xbdea1777bd77fcb6U, 0x3d1925743d1f06d4U, 0xbd918931be1c3b38U, 0x3e0d379bbd4acfc0U,
  0xbd10f72c3dbe274aU, 0xbd88bb0dbdd92297U, 0xbe66c992be1610d5U, 0xbd995b9abb6d4540U,
  0xbd557460bd7e01d3U, 0x3ccef44cbe332355U, 0x3b53c4bbbb8e4fe0U, 0x3d858199bdf1d4a9U,
  0xbd1dee04be13460bU, 0xbcd6a0503d928e9aU, 0x3d9b8b533bc4fbb5U, 0x3db4a7ff3df89464U,
  0x3d0138493dc4695cU, 0xbe60fac13dcae054U, 0xbe40525d3c1ade8dU, 0xbc8b48a8bd254e38U,
  0xbc206dd0be093c88U, 0x3dcb69c23e479942U, 0xbd3aad3ebd80199aU, 0x3d7292c8be4fe277U,
  0xbd7313e5be01ff49U, 0xbdb35f9dbde3b1efU, 0xbdd3eaa03e1b9285U, 0x3dd924fa3cb3b8d2U,
  0x3e22792f3dc1eb97U, 0x3d7fbe6f3ce0fc10U, 0x3cfc5eec3d78f28dU, 0xbd66bf893bdccc60U,
  0xbd93c0343e0730efU, 0x3de439f63da4b5d2U, 0x3e0148c3be12cc13U, 0x3a4f39933e09be27U,
  0xbd2e5c14bde56ea1U, 0xbdb351833ce3c302U, 0x3e4efbd43dd34e60U, 0x3bd83bba3dad82d6U,
  0x3d8d8152be3fccf8U, 0xbc9e11b63c4793faU, 0xbd822c60be1d8eddU, 0x3d3168543d801cb4U,
  0xbd08f42c3e53067eU, 0xbbb2fa003d419198U, 0xbda16b363cc0fa60U, 0xbdad50d2be3ca075U,
  0xbcf8dfb3be060936U, 0xbd34d15bbe2d4d4fU, 0xbe2b8a5bbd77a1c4U, 0xbcf64bc03d923980U,
  0xbdafbd34bdce60f6U, 0xbe0646dcbd5bed60U, 0xbc9c58a83d9f9b96U, 0xbd6ed6f23dd71cd5U,
  0xbd2db1ac3db5cb9aU, 0xbc425545bb820f69U, 0xbdc2090fbe29e051U, 0xbe13ed0cbe0aaa7aU,
  0xbd15a340bdff1aa5U, 0x3dd66c1e3db7fe86U, 0x3e0659743e2a2126U, 0x3db79d87be053e52U,
  0x3c7aaf503df4062eU, 0x3ddb9b2ebd98d8bfU, 0x3db89b223e2caecbU, 0x3dcdcad03c57ea60U,
  0x3dd11ee6bd8a820cU, 0x3d7e55b63dd142d1U, 0xbc7ab9fd3d0f9c80U, 0x3d3ba934be1abc8aU,
  0x3d4aa7a03b423560U, 0x3dbfd698bb8d99c0U, 0x3d89d939bdbe4cacU, 0xbc97d8c9bcc57bb8U,
  0x3c8901a8bde4693cU, 0x3da5111e3d73cd88U, 0xbe1651edbe20dfb6U, 0xbe262b0e3e161cbaU,
  0x3d3b3bafbde55a99U, 0xbd44028a3d228185U, 0x3ddc53f53df6b12eU, 0xbd1a79143db61aaaU,
  0xbd83683b3e28156fU, 0x3db4cdbabe34d159U, 0x3dc6ed023ce50c38U, 0xbdc56a29bddf48d6U,
  0xbd30c877be2921a1U, 0x3d2b1ce3bd9a6adbU, 0x3dd2c0563e12c6ecU, 0x3d1beb89bbe5d4dbU,
  0xbe02ab033ded5fc3U, 0xbce5906fbca64e18U, 0xbe26986f3de95aefU, 0xbdf33fc13e26c3cbU,
  0xbdebfaf03c7bc4d0U, 0x3ab5d5003d84de72U, 0xbe16402b3e1131f9U, 0xbe32dc2ebdbfe814U,
  0x3df055debd48bdc8U, 0xbe2c86883dd46c9aU, 0xbdba8f6d3db50366U, 0xbd84bdb23d735190U,
  0xbdb6c4a93d6f8248U, 0xbe2bc8103d982bd6U, 0x3e030fc3be199a4cU, 0x3e27f4ddbe13d7e6U,
  0x3c6eff50bd9d5911U, 0x3cbe77e03dec3c16U, 0x3cf19e88be270456U, 0xbe08ee603cf80748U,
  0x3bf227c03d9b249eU, 0xbe065ab4bd59b9f4U, 0xbdac6749bde6d9f3U, 0x3cc0b5c8be0787a1U,
  0x3ddfe54ebda73a1aU, 0xbd9013333d8c579cU, 0xbd65a432be0da4d0U, 0xbe34d5af3d08b23cU,
  0xbced9d903c70b3f0U, 0xbe334bd63e2fc169U, 0x3ce281c0bdaf964bU, 0xbd262844bd6fe334U,
  0x3c03a430bbcb4500U, 0x3bc90680bdf85d35U, 0xbce60c48bda52a88U, 0x3df03faebd24dcbcU,
  0xbd58cec2bd3615b8U, 0x3e0f215bbe282e32U, 0x3d414524be297a20U, 0x3e0fe607be2d804bU,
  0x3d05cac03d2c0cf8U, 0xbe10ccae3d9e56a2U, 0x3d8a0c883afc9900U, 0xbd0b31803c8343a8U,
  0x3d6b1e083bb645a0U, 0x3d1c90943d5ae5a4U, 0x3dc051823e32cc35U, 0xbd04b088be100bf9U,
  0xbe15bab33d122750U, 0xbd598826ba416d00U, 0xbd5a2e683dad03f2U, 0xbe1276d23dc37a1eU,
  0xbe26655fbe2874bbU, 0x3dfa9e2ebe0b49fbU, 0xbe2e9074be268a38U, 0x3d1b2f1cbd769202U,
  0xbe30791b3db08536U, 0x3e122fb73d6e6878U, 0xbd1f26ec3cd92848U, 0x3e1330df3d47afe4U,
  0x3de8c3563e126007U, 0xbdb2545cbd513fe4U, 0x3db3db823d8f9e64U, 0xbdb5e547bc071c80U,
  0xbc1a01d03d62741cU, 0xbdaf193e3e34a8f5U, 0xbe2449babe28a3daU, 0xbddd99b8be2b99e7U,
  0x3de81e223e235f31U, 0x3e2c1c55be10597dU, 0x3d801dde3df07a66U, 0xbc26a1d03e1f4279U,
  0x3d39001cbde34c3cU, 0xbe496b713e2b8cf9U, 0xbdb9d0b13e0f498fU, 0xbde0799e3e21b9dfU,
  0xbd2f53083ce73408U, 0xbdc04eeabe0d99ccU, 0xbde94e3dbd4be904U, 0xbe0b02f83d883f3cU,
  0x3c90fa48be223051U, 0x3cb741003d94567cU, 0xbdf208d13d8c1f76U, 0xbe2a4815bdb977bfU,
  0xbe2cfa35bd3c1d86U, 0x3cb7e2673e11b6d5U, 0x3e1e6365bd9bb15bU, 0xbda39e3e3d56520cU,
  0xbd1559ecbdb031ecU, 0x3e2c7ab53d78268bU, 0xbde451a53ded510aU, 0x3dcf88c23dc34293U,
  0xbdbd1794bdd1b025U, 0xbe0504843de6d6caU, 0x3e2236a3bcdc46e0U, 0x3dacf19ebd4e4a00U,
  0xbe07f341be2f1588U, 0xbcec88d03e2f11f7U, 0x3ce13e833df5004cU, 0xbd9bd1a93d376b4cU,
  0x3e80fdaabdd0abc6U, 0x3b53cf00bd5f5cceU, 0x3e2894f3be0edee0U, 0xbe21f0a6bdac602bU,
  0xbc0de2d0be2a3d6cU, 0x3d9a54ecbc72ed63U, 0x3e0c93cd3dd97dd7U, 0xbe705717be1b3534U,
  0x3d80a49e3d638091U, 0xbd4f06703e6b307bU, 0xbcc090403d86902aU, 0x3e847bac3e4a2d64U,
  0xbd42a3c93ba49e55U, 0x3ba702e0be08c80fU, 0xbd277cd93d245504U, 0xbdf716bc3e205990U,
  0x3d204c93bdf8779dU, 0xbde6a33bbda4b3d1U, 0x3e05662bbd9b5badU, 0xbe00c844be272afcU,
  0xb8d1f0003d0dce28U, 0xbd33042cbec16750U, 0x3d0cbc783dcc1436U, 0xbddc69c63e211261U,
  0x3d6454633cde1d08U, 0x3b4d706d3d3fda16U, 0x3e0058c9bdc4a823U, 0xbd6254183d7f806eU,
  0xbc42d7b0bd34028cU, 0x3d1c1568be104791U, 0xbce04fbabddf45b9U, 0xbe2abce4bdab689eU,
  0xbd39cf5bbca37c98U, 0x3a0fe5003e105701U, 0xbce93a98bd635a50U, 0xbe3e4b3bbd1c81dcU,
  0xbdc43e3cbe224b57U, 0x3d1326eabdcca72bU, 0xbcc6795a3d0381ddU, 0xbdfc99f5be2afb9fU,
  0x3deb7ccebe29d84cU, 0x3db8d828bc0bf7d9U, 0x3d236b5d3d6e12dbU, 0x3de32ece3e04f8a0U,
  0xbe2507163df36affU, 0x3dd7035a3e2c62c1U, 0x3e1660f63dc5da2dU, 0xbcf7d7243e056049U,
  0x3defddadbeacd004U, 0x3d4dcf86be033e29U, 0xbd230b0abd8b5291U, 0x3d3ee5903a5e9000U,
  0x3dc64266bd82be86U, 0x3c9af948be7f6c8cU, 0xbdcb0e3dbd71fad6U, 0xbdab4f503e15788eU,
  0xbdd027c4be21fe7fU, 0x3d828c10be094e1bU, 0x3c925f483d89d4d5U, 0xbe1fa5593d54331bU,
  0xbd91b02bbbb46eafU, 0xbdedaaf03d7039d4U, 0x3d9a45123d092fffU, 0x3b5f854fbdb7a2f4U,
  0xbe41736fbe036d4dU, 0x3df4611e3d8bb500U, 0x3d56d8c0be253628U, 0xbd5989c33d07d59cU,
  0xbd8b203dbd7bac14U, 0x3d9df557bd2c8295U, 0xbe080ec4bd15668bU, 0x3d39902b3e2f5ac5U,
  0x3d5956c83e29ff34U, 0xbd1fe44e3d9eff49U, 0x3dd1d5a13de08beaU, 0x3c51fd5abd17bc8fU,
  0xbdec135bbd44af48U, 0xbdd67102bd3afc14U, 0x3b818923bdc9dc55U, 0xbdd677dfbd04d4beU,
  0x3d9d3e7fbe1b6f5dU, 0x3c906b413d44111dU, 0x3e0a718cbd94093cU, 0xbb8ea020bdacebe4U,
  0xbd1fafd4bc6a06b0U, 0xbe0ca53f3c59723cU, 0x3de77b2c3d8924e4U, 0xbd2dee28bdf59359U,
  0xbe45057c3e2d20f7U, 0xbd2bf4c13d5d747bU, 0xbd403728be60ba7aU, 0x3d8ff486bdb9cc08U,
  0xbd4a83c0bdf3422aU, 0xbc3212a53e2530b5U, 0x3d613ab2bdecb8a3U, 0xbdd280143de6f32aU,
  0xbc3b2f3ebd335cb0U, 0xbe10d5713e2f5491U, 0xbde764973dae1c5eU, 0x3dd024173c7040e0U,
  0xbdea6230bd6ecc08U, 0xbda3812a3d852265U, 0x3c8128b5bdd3dbd0U, 0x3e1b3fe53e1e3a23U,
  0xbe2b1a92be39374fU, 0x3d1fab783ce59697U, 0x3d6c801c3be05460U, 0x3e8d76553caeaa33U,
  0x3decf97a3e3b0decU, 0xbc263f003e2e0a9fU, 0xbae29e11bde45446U, 0xbe444261be030e3eU,
  0xbd2b7be6bdcb5389U, 0xbd4f006b3c608e18U, 0x3d106d98bddb7147U, 0x3da92c86bd4740d4U,
  0xbdf76e7e3dfd9e0eU, 0x3c5e1c90be6bcc70U, 0xbbaacbf93cc57d28U, 0x3e2f06113e3f0e8cU,
  0x3e078cf53d8ac790U, 0x3e15767dbd52a7b0U, 0xbe192ae83d05bc20U, 0xbe06bd003dd4d25cU,
  0xbd9b2aa7be15ce11U, 0x3e1aa1d13e225567U, 0xbdeb6b813d60a557U, 0x3dc9b30c3d796968U,
  0xbe140ffcbdb48a93U, 0x3e040d27bdf6a56eU, 0xbcd28d583dd2e45aU, 0xbd9482753d7b342cU,
  0x3d3ee994bc743c50U, 0xbd8fce853d73d110U, 0xbd0dcd883d025464U, 0xbe269fff3c7e6c50U,
  0xbe1e52c13bcc1aa0U, 0xbe1a36063d3723d4U, 0xbdeee4083d813e86U, 0x3d519eb0bdd1a40eU,
  0xbcf58c48bd51daecU, 0x3d6be1b8bcbe1b98U, 0x3e17f3593de936caU, 0x3e145a71bd83bb3aU,
  0x3e10a895be349028U, 0xbe307d8c3e1882ddU, 0xbd9eae663d7e38c8U, 0xbdd8114b3d19a3c0U,
  0x3d6ddfc4bd2645a0U, 0x3d5d0e043dda86e2U, 0xbde19ab73daf8d6aU, 0xbe263facbd957e8aU,
  0xbda99d32be2a28f0U, 0x3db10c42bbe1b5a0U, 0x3d39c2903c8dc128U, 0x3d9c1942bd8a31e6U,
  0x3e09154bbd5c904aU, 0xbce02fe0bdf34de0U, 0x3d849caebd099a4cU, 0x3d7592583e2d62f5U,
  0xbcc30b713ddb7456U, 0x3e187a753dc9f2e6U, 0x3e0fb02fbc8f42b8U, 0x3e012bc23df172daU,
  0x3d04c5e0be18325eU, 0x3a0187993d4aafe2U, 0x3cbe703abe042a84U, 0x3c560a60be11fbdaU,
  0xbdf7ff56bdfe10c4U, 0xbd4346623acb8e26U, 0xbdf85ed8be2824acU, 0x3db95621be065420U,
  0x3e0fbf293ab4c181U, 0xbd5efe8a3cd93548U, 0xbc84ef27bd2ac120U, 0xbe28efadbc068010U,
  0x3deab01abe2d0cdbU, 0xbdb07fa5bdb96266U, 0xbd8c904a3b7dd700U, 0x3c491b603e009a07U,
  0x3cb5c1f0bc3e9930U, 0x3db7c2aebe03d486U, 0xbe368b013e2eec3bU, 0x3d94993e3ddf1169U,
  0xbdd8fe8dbd156840U, 0xbcff26003c1ee3b3U, 0x3df1e9b63e077726U, 0xbdee2e04be04219bU,
  0x3e06a4713d2b9b73U, 0x3a49a800bd5b2aa0U, 0xbdd9280a3d63e8f4U, 0x3d5be173be34804aU,
  0xbd7e367c3d59820cU, 0xbcf9be783d266680U, 0xbe12a430bdc4e75eU, 0xbcc99c053d4d1e54U,
  0x3d7a90e0be275f72U, 0xbdf07d75bdf99a65U, 0xbe1ead413e182045U, 0xbc860b8b3c8debc0U,
  0xbda39978be25bfc4U, 0x3c811479be1277ffU, 0x3d9f9130bdad517eU, 0x3e09493f3ceb8906U,
  0x3dd21ac2bafc615aU, 0xbe0dba99bdbde504U, 0xbe50b7483e19e693U, 0xbdc4de743e145613U,
  0x3d2255983d083767U, 0xbe253b95bdd0b02cU, 0x3d19c24c3d7383c4U, 0xbbb8dfc03dc87146U,
  0xbd92bcc33d505978U, 0x3db576163dc78a88U, 0xbda199433d768390U, 0xbc5e27003cb8133dU,
  0xbdd116a23c853958U, 0x3dac45363da96da6U, 0x3d9e0486bb885d12U, 0xbe2c55f33dbc25acU,
  0xbdf577743d1e1b3eU, 0xbd51be10bda65b4cU, 0xbd26050b3db04916U, 0xbd10b9203de944f6U,
  0xbe201500bda7a912U, 0x3cb1dd403dbeec46U, 0xbd3a0e68bdda77cbU, 0xbe3f12b6bd7dfe72U,
  0xbda60ca7be2ed0b0U, 0x3ca46d74bd9dde1dU, 0x3d49ae27bd917394U, 0xbbe988cabd9f7059U,
  0x3ac8ab803ddfdfe2U, 0xbe51c524ba8e9bfeU, 0xbdc2be143c65b140U, 0xbdec30c3bd14258dU,
  0x3e120d85bdd90984U, 0xbd94c8dc3d7f2324U, 0x3e07cf5e3e1bd923U, 0xbcf046cbbe315d1bU,
  0x3e0221db3d9d88f2U, 0xbe4b955a3bfa4be0U, 0xbd2ad2003dbca3b2U, 0x3dde449abd7164ccU,
  0x3e167799bd972915U, 0xbd81172abd2120f0U, 0x3cc3b26cbdb7a119U, 0x3e305ca53c7997d7U,
  0xbd24d18cbe0fb5d4U, 0xbe1679e03c3d130eU, 0xbdfb95a6bdea2cdaU, 0xbe12300ebde35f17U,
  0xbd17c7bcbd9cb30fU, 0x3c437c403cbf3180U, 0xbe045cb13dcf3494U, 0xbdf29ff83dd38d3eU,
  0xbe369c0f3cb91780U, 0xbcfa4b883e322f37U, 0xbd80a72d3d4db43cU, 0xbe40fd30bd260ff8U,
  0x3e0b2231bd31e948U, 0x3ca338523dddd546U, 0xbd73a501bcd45524U, 0x3d82bb103dfbd72aU,
  0x3db0148e3e1a7c33U, 0x3d95c6febd5b4ba4U, 0x3df747debda55725U, 0x3d86887dbe90e1c4U,
  0xbce0783bbd699629U, 0x3cff4740be161525U, 0xbc44cd92be0a391aU, 0xbd0b0043be32aba7U,
  0x3d6851773d978275U, 0x3cacc9943ca17e89U, 0x3cfcd02fbe0ef9a6U, 0x3e157f8bbd8b787fU,
  0x3e0cf2333d43f6b4U, 0x3d3cf5c0bd41b840U, 0xbda12ebc3df867beU, 0xbe30c90bbce2f7b0U,
  0x3cee64db3e2029c1U, 0xbd976f43be117a2cU, 0xbe1ebb40bdc4a6c2U, 0x3e0b04dfbce96189U,
  0x3cba8ee03df74d33U, 0xbcd52745bda9a241U, 0x3d961860be23c737U, 0xbd9ac15a3d425768U,
  0xbe1cf103bda9ddadU, 0x3a7faa003e34a451U, 0xbc8ee0983d58f364U, 0x3ddc7bcabcfff300U,
  0x3e2c95a33d597664U, 0xbc2b9f303c487750U, 0xbde6d1bb3dbd6b66U, 0xbd563fd8bcd06ef8U,
  0x3dc9a576be0ada2eU, 0xbd9def6abd13aad0U, 0xbe0b4530bbe712c0U, 0xbda18e85be327e1aU,
  0x3e201bd53db8bf46U, 0x3d85b994be0dfc26U, 0x3d42d7943d60a9acU, 0xbdc6594bbdc34933U,
  0xbe087426be065bb5U, 0xbcf58630bd997422U, 0x3d8ee2103d0e61b8U, 0x3e1018adbdedb640U,
  0xbe2832513e1701e1U, 0x3e0a07cdbd9a810eU, 0x3d1ee2743e2c2bc7U, 0x3e126131bd8056caU,
  0x3d1a96983e3100ffU, 0x3c1535603db596f2U, 0x3d8902983dfe1bd6U, 0x3dcb1f663d226e34U,
  0x3d9031d8be318d1fU, 0xbc88cc18bdc81090U, 0x3d5448e0bdb72824U, 0x3cb47ff0bbe406e0U,
  0xbd8de2e73e1f3b01U, 0xbe15c24d3ddf46c6U, 0xbd83a53d3d4df0e8U, 0xbb8a2860bdf8f9c4U,
  0xbe06223b3d410298U, 0xbda185493e19064bU, 0x3ce83d883e102b0dU, 0xbd77bba8bdb0ecddU,
  0xbbac6b60ba377f00U, 0xbc84c300be0c55c6U, 0xbe1caacc3dfe7dbaU, 0xbd22551c3e102a45U,
  0x3dae173ebcc0bf10U, 0x3e2e1523bdf21374U, 0xbe17d841be22e89bU, 0xbd9d54c2bdbe9eebU,
  0x3e2df347bcf7c1a0U, 0xbdce7a9ebbf12ca0U, 0xbe153e56be3462a5U, 0x3da6ffbabd42aff0U,
  0x3e1df9e93d56f3fcU, 0xbd63ec06be1505e4U, 0xbd98dc0abe28f282U, 0xbd20baacbdf0ce4cU,
  0xbcfd9a08bdf0fc76U, 0xbcd464f8bb4c6480U, 0x3d5526b8bd124afcU, 0x3e13d7793e0b453bU,
  0xbc2e23c0bd36583cU, 0x3e2b7849be23c5aaU, 0xbc6ce0703d84e33cU, 0x3d8587febd17dd64U,
  0xbe128ece3e187845U, 0xbd20c4cc3e0e3f4dU, 0x3d01d8e83ddfaea2U, 0x3d5187dc3d7446acU,
  0x3e303ff93d960e42U, 0x3d1a8d7e3c89a575U, 0x3d667e443d4cafe9U, 0xbd2320fabd3265a4U,
  0xbe0beb003de3db32U, 0xbe314fe03d781052U, 0x3c5345903ddf885eU, 0x3d47dccb3dcf7a0bU,
  0xbd2923b03c9711a2U, 0xbb267040bdd58ab6U, 0xbe0e7d55bdb8846fU, 0xb8c1bd8d3e17f198U,
  0x3d777e8d3d9f689eU, 0xbe1ffdc5bd82e761U, 0x3e128aa03e0b21c1U, 0xbc52a6a0bd272d74U,
  0xbdf67b343d104138U, 0x3df1fe9ebe23007eU, 0xbc811c62bd2502b0U, 0x3d92fd483c8daa43U,
  0xbd759fb63dbd10aeU, 0xbd9800913db77addU, 0xbd336038bd7cb9ceU, 0xbdc43c88bdac33e0U,
  0x3d9ddd22be0a764dU, 0x3d85cc68be0e747eU, 0xbe077227bc94b08aU, 0x3dbb37943df4875eU,
  0xbd850f943d532848U, 0xbd4ca8c43e28a45fU, 0x3bf481c0be012dbdU, 0xbd8e1a913deaa4ceU,
  0x3e24001f3df3fe26U, 0xbda3c36b3daf5809U, 0xbe12aebdbc383b6dU, 0xbd0a64913d85ec68U,
  0xbd50de5c3b2f1856U, 0x3dbfc8c63b955c8fU, 0x3ce6f1873e2e1c21U, 0xbdfa57273a2e3bfdU,
  0xbb32a3803d5e4302U, 0x3cc40a90bdd15745U, 0x3d5e60c1be074858U, 0xbb4e01bd3d0be2c7U,
  0x3dcb52cbbe378494U, 0x3db67ef43e1866baU, 0xbd6a16aabe30b054U, 0x3ddccada3cd80598U,
  0xbdebebf4be0a3a6eU, 0x3e31d64b3dbce873U, 0xbe20908b3c88f4e8U, 0xbe18f314be180d96U,
  0xbcb7968ebd12b134U, 0x3d0e1f6bbdc973a3U, 0xbca7b2a83e159cb8U, 0x3e271ce33d80fe68U,
  0xbdf873e13dc916adU, 0x3db40786be2367b2U, 0xbe43b1223dc6c591U, 0xbe1fc55fbd2be600U,
  0x3e3222ce3da61e26U, 0xbd08e1c8bbddfb00U, 0xbdc1beb3bdc3d946U, 0xbd6a1e29be1af3dcU,
  0xbc43f7703bee0b80U, 0x3d8a6041be2e1ed2U, 0xbe67f9bd3d41f941U, 0xbd76a6d8bdc48f8dU,
  0xbbe16aa03e2711fcU, 0x3c02dcaa3de7ecceU, 0x3c9c31783bbe5ba0U, 0x3e3c7d45bd949731U,
  0xbca84f083e9ea344U, 0xbe30b1ccbdf507baU, 0x3db63efd3cf7eeb6U, 0x3d61059d3e27d851U,
  0xbd4fdc20bd988166U, 0xbe29fd5f3ca9f08eU, 0x3dbcc00f3d966ae4U, 0x3e14aa9b3e2a481bU,
  0xbceed6783df7b2beU, 0xbd7118e0bed37193U, 0x3d13bd97bd15afa8U, 0x3db84916be72c2b6U,
  0xbc5e44873e2fcf25U, 0x3e347cbebdba533cU, 0x3d52a43c3c89f5deU, 0xbe2c2b12bdacf765U,
