/**
  ******************************************************************************
  * @file    mnist_data_params.c
  * @author  AST Embedded Analytics Research Platform
  * @date    2025-03-16T11:51:11+0100
  * @brief   AI Tool Automatic Code Generator for Embedded NN computing
  ******************************************************************************
  * Copyright (c) 2025 STMicroelectronics.
  * All rights reserved.
  *
  * This software is licensed under terms that can be found in the LICENSE file
  * in the root directory of this software component.
  * If no LICENSE file comes with this software, it is provided AS-IS.
  ******************************************************************************
  */

#include "mnist_data_params.h"


/**  Activations Section  ****************************************************/
ai_handle g_mnist_activations_table[1 + 2] = {
  AI_HANDLE_PTR(AI_MAGIC_MARKER),
  AI_HANDLE_PTR(NULL),
  AI_HANDLE_PTR(AI_MAGIC_MARKER),
};




/**  Weights Section  ********************************************************/
AI_ALIGNED(32)
const ai_u64 s_mnist_weights_array_u64[3239] = {
  0x3e109fd33ec51dd8U, 0x3e9d018c3e4bd90bU, 0x3f079d6e3f1ab2f4U, 0xbf2d161fbeed2708U,
  0x3f800cdfbe45d7e3U, 0xbf02a6a13ec3045bU, 0xbf3a5f5c3f3549d6U, 0x3f6c3a5fbec835d3U,
  0xbc3e2f5d3d5bb636U, 0xbf949a1cbd820659U, 0x3c949b183dcad846U, 0x3dea43e83dee8b60U,
  0x3d50180c3c9195e8U, 0xbd00ea84bc83b6c0U, 0x3d4f5abe3dc06344U, 0xbd479d123dcc0eceU,
  0xbe254a99bcf4931aU, 0xbd606853bdcf225cU, 0x3d4502e73d0ae208U, 0x3db735a8bdca4ac2U,
  0x3dcdc7c4bd46e7f6U, 0x3dadb2f0bcf4b330U, 0x3de90064bdf55da6U, 0x3da9ae6a3cecfaa8U,
  0xbcdb0b84bda47800U, 0xbdde2f683c19b3a0U, 0x3db562e63ddf77d2U, 0xbe4583643d8095faU,
  0xbdde0cfcbdcb4ffaU, 0xbe06b3ccbdeac2f7U, 0xbe2fe3aabd6f6e54U, 0xbdcefd40bc7d691bU,
  0xbdb8aea23a9693feU, 0xbdc2f9d8bdb6532cU, 0x3cd10f373d13909eU, 0x3cff77f83e37c141U,
  0xbd4fc5ea3d8c11ccU, 0xbd89c898bcd1f1e4U, 0x3df5022e3a7cfb00U, 0x3e087f14bd6731d0U,
  0x3c4af3d23c58fbf0U, 0xbda847ac3cebc7dbU, 0xbcce649e3c374e6aU, 0xbe11f087bc8dc5ceU,
  0xbcc1ac613d4908e9U, 0xbd164ef5be1f46cfU, 0xbd84ea993c2aaf10U, 0x3d6a3cc1be243f2dU,
  0xbce1dad4bd8be22bU, 0x3e03ba1cbe088d5eU, 0xbd3976a9be375fd7U, 0xbd36818cbe2406c7U,
  0x3dc90060bdd70753U, 0x3d0b0652bda4407aU, 0x3d7fc9d1bbc0c003U, 0xbc104e0d3ccd0176U,
  0xbe4ca1f6bd422ef0U, 0xbd97dcab3cc40e31U, 0xbe0901f7bcd4ec2bU, 0xbcbd916abdedbd09U,
  0xbe2fb754bd3a6faaU, 0xbdbb3d62be19a778U, 0xbe0e1754bdfc8a0dU, 0xbcf7bcf6be017e18U,
  0xbe05ca493c9df1d0U, 0xbc9e1f703c9057f3U, 0xbda9520e3d4dd150U, 0x3d9f93523d3a6763U,
  0x3da72c063e24c043U, 0x3e15318e3ddb6575U, 0x3d777522be214bf5U, 0xbdecca8e3d544789U,
  0x3cd11daabe1da5e7U, 0xbe33b787bd3413f4U, 0x3c1dcd23be48c02aU, 0xbd951aa3be51ab2aU,
  0xbcf4e4dcbd3c67ddU, 0xbd5ecd32bdd37b1dU, 0xbe1b3504bd71e9c6U, 0xb89f30653cfc80e7U,
  0x3de0e556bd852ea4U, 0xbda4e430bd037e77U, 0x3d962906bc23afb8U, 0xbc198e47bcaa2d0bU,
  0x3d29842f3d238acdU, 0xbe2abe9fbd1e5c74U, 0xbde23a4abd0aa01dU, 0x3c1fd9cfbcd8b135U,
  0xbe2577aabd5681fbU, 0xbe2b426fbe2a22feU, 0x3d031ff1bdce7d32U, 0x3aeb1e873d3ae2d4U,
  0xbe16bd04be117ddbU, 0xbe21c07ebe06b48dU, 0xbd960a3ebc6c3198U, 0xbd828abebd817f64U,
  0x3c9290bdbd97ac46U, 0x3d19e08ebde470fcU, 0xbd744eb33d087cf7U, 0x3b96bff73d1288e3U,
  0xbc886f3f3d3ce6c9U, 0xbd9a70ecbdeef30eU, 0xbe0b3f9ebdb15280U, 0xbdd033a6bd5edc2cU,
  0xbb9b9494bdf3fc16U, 0xbd4db501be321c1fU, 0x3dfd6228bc4a9567U, 0xbdadb0a2bdf45316U,
  0x3b99ed00bc5b8058U, 0xbdc1976dbbabb240U, 0xbe37cdfcbd7227adU, 0x3d3b2fd6bc02c5bfU,
  0xbc6589eebe2b5466U, 0xbdb9681fbe0fabf1U, 0xbe5034393cd5d612U, 0xbe14e3b33d38594bU,
  0xbdff0d84be16d4a1U, 0xbd27b9dc3d0c4518U, 0x3b176a36be216297U, 0xbe1fa475be27ca79U,
  0x3d279356bb965825U, 0x3d5186743daf3c16U, 0x3dceaf8abd896cc7U, 0x3d9c2542bda86f08U,
  0xbd141cc2bd5bc3ebU, 0x3e098d2fbdadc923U, 0xbc831f9d3d1e3d51U, 0xbe45baa0bd9fa651U,
  0xbe3c85753c723e57U, 0xbd1838a6bdd1c220U, 0xbc9a7229bdb386bcU, 0xbe32e3acbdc3cf68U,
  0xbe4456fcbc5f6b77U, 0xbe0e607c3d282a57U, 0xbce8cfc9bdc041a0U, 0xbd09e702bdb8972aU,
  0x3cddb7383c3b7ba0U, 0x3d4fa19ab96d4200U, 0xbcc78bfc3d766a51U, 0xbd4574efbe0bb3f7U,
  0xbe0b4c29bd250844U, 0xbc0bad2cbe017734U, 0x3d1e1a20bc70a794U, 0xbe1357f83c725aa1U,
  0x3d72466ebe1c9c74U, 0xbe0119cabdbb18c5U, 0xbd91ad62be3d9d8aU, 0xbd2f012bbb1b4facU,
  0xbc13f537be2778e9U, 0x3cb8e8babc23e81aU, 0x3d35ff28bcf91ca0U, 0x3cec7b3a3d9a9789U,
  0xbbc1b0df3ca43ed6U, 0x3c516a78be1f3ad3U, 0xba4f606dbd69faf3U, 0xbe344570bd954e38U,
  0xbb39a5c6bcbb96abU, 0xbe37c20fbe17aef0U, 0xbe2cbea9bddd3e19U, 0x3d9d332bbe080a64U,
  0xbde300373d131ad5U, 0xbcc5a1dbbe425824U, 0x3cc33cf4be385d8cU, 0x3d39e974bd4838ecU,
  0x3c866d80bd57fa2eU, 0xbd4f84203e0b308cU, 0xbe30e25c3c23ec24U, 0x3e1aa6e43d3dbf72U,
  0x3d2f37bf3ca8e9b0U, 0xbd621d30bd91b13cU, 0xbe1a99e93d218b63U, 0xbe03900cbe3e9b7cU,
  0x3c8a9dde3c76f9bdU, 0xbd3a2b863cbb76f3U, 0x3d34c691be0bd8ccU, 0xbc60da99bdb44123U,
  0xbd88a9223d52d134U, 0x3d8bcd12bd83d84aU, 0xbd9ba1343c4c5270U, 0xbd8ed4f93c1720f0U,
  0x3dedac743cde1c97U, 0x3d341e4dbd088bebU, 0x3db93ae53b4f7740U, 0x3cc69579bbf7d224U,
  0xbcf7d6b2bcd2988bU, 0xbda253e9be284d80U, 0x3d20ed6abdd4e84cU, 0x3df3ab4ebdf6d525U,
  0xbe273e44be22c841U, 0x3cde53733e2747eaU, 0xb60ed5203db83ee0U, 0xbd97add5bb9eca70U,
  0x3d5862b83db17fd2U, 0x3d83dd66bcda3168U, 0x3d8418743d0d1b85U, 0xbd89b5a13d4961c5U,
  0x3e37cf6c3e022e91U, 0x3c00761f3d4508fdU, 0x3d0d08da3b364f70U, 0xbc451be43db94ee5U,
  0xbd5f0e643cad1c18U, 0xbd5eda07bc51b7f5U, 0x3ded21223d18b224U, 0xbd6018ecbd16f7c8U,
  0xbb3ecac03d80caf2U, 0xbd9723163c18ad40U, 0xbd66fc6b3c4d2e0eU, 0xbd3d31cd3d17b608U,
  0xbdd986e4be24b085U, 0xbd578592be6152e4U, 0xbebb9b7dbde783baU, 0xbe7b9824bd8dd34eU,
  0xbe951cfb3d1a45deU, 0xbe906e1b3e213b9aU, 0x3e7c4fd1beda5844U, 0xbe9f405dbf632936U,
  0xbebb41fbbf33a3c7U, 0xbdfd7fbfbe167105U, 0xbd47c98bbd50995fU, 0x3db046dabd35593bU,
  0xbdb377dcbe106eccU, 0xbdd5f519bf11be87U, 0xbe8c561fbf45d7acU, 0xbeeacbb5bee38597U,
  0xbf15fd6cbf236f7fU, 0xbf62adb2be892339U, 0xbeeed7bebf14012fU, 0xbf663cdebef5249eU,
  0xbf2750b5beca2ce5U, 0xbe979925bedd004fU, 0xbf0264c2bf2f17b3U, 0xbf136391bef4fe22U,
  0xbf1a62f9be9fd7bdU, 0xbe57f47fbe386a24U, 0x3d21cdb4bd6d339fU, 0xbd8f6bf2be88ee2eU,
  0x3e63d7e9beb1faddU, 0xbecdd627bf11eddfU, 0xbf239fadbec67ee4U, 0xbe4160bdbea3738fU,
  0xbe01e1f0be86187bU, 0xbe0cecd2bed20f06U, 0xbdbf8b9bbef227ffU, 0x3e18e8f4bef9c5a4U,
  0xbe1cd864beb38cf9U, 0xbeddc6df3e1d09d8U, 0xbe79a7b63e0fe412U, 0xbeb631aa3e59e5c9U,
  0x3d2782493eb7ea93U, 0x3d906732be4ab2beU, 0x3e3228cdbe032c05U, 0xbf14c5a8bdb8b060U,
  0xbe990846bdbff259U, 0x3e4e1f23bdb65979U, 0x3e138611be15cd75U, 0x3ee3fe0f3db79db5U,
  0x3c46c29c3e2e3844U, 0x3e3a70c7bd268067U, 0xbdf9a16cbdcbafc1U, 0x3d89a4673e3a1cc7U,
  0xbeaf8426bda3d074U, 0xbee775a0bd350340U, 0xbd31da8b3eadba7bU, 0x3e7b6df2bc4f2cfeU,
  0xbeb1693b3e462519U, 0xbeb993d7bd38f61eU, 0x3c73b182beb05908U, 0x3eba4a61be94c994U,
  0x3efbe111bca4effaU, 0x3f203d863e4fffc2U, 0x3f5f59633de759d8U, 0x3f1b8b8b3e1c60c4U,
  0x3e8c44903d05c394U, 0x3d045bd6bccec210U, 0x3e8dbbe53dbfcb76U, 0x3ea5f20c3e629076U,
  0xbc1e6e933f45597cU, 0x3ead4abdbcf668e8U, 0xbf102f963e6aa45cU, 0x3ca39304bea9d6ebU,
  0x3e16e22dbd7ef31bU, 0x3eb7bcd43ec4960cU, 0x3f5617f23e8a82d2U, 0x3ea6ea123e1a95feU,
  0x3f09efe93eaaedfdU, 0x3f8944fd3c70cc04U, 0x3f027813be35f06dU, 0x3e0007f9be997d5dU,
  0xbdbd4630be9b3460U, 0xbe8dd9b0bdb6b8bfU, 0xbda6dc3e3e60ab8eU, 0x3f064a66bdc25702U,
  0x3d073adabd728fefU, 0x3e6b6648bc32cbebU, 0x3ef820383e003adcU, 0x3eaf973b3f019a69U,
  0x3ef4f3db3e91acf5U, 0xbdc95b5a3e321a5eU, 0x3e9758c5be497a37U, 0x3f5a65ecbda98bc4U,
  0x3f07fc22bc030d59U, 0x3e84922ebe5e412eU, 0xbea6136bbeb77883U, 0xbef51ec63e3de199U,
  0x3bf5b22cbdf5c22aU, 0xbe5ac84d3f571ea0U, 0x3fd226983ef91dd7U, 0x3ec410ae3e6276a7U,
  0x3f4de1d83eb40b67U, 0x3dbd26c93f1a9b66U, 0xbe0778573e7f3e30U, 0xbf232b0cbe6cd873U,
  0x3eb57251be5425a6U, 0x3f050080be418e27U, 0x3e68a853bc568281U, 0x3eda0b53bd2d437fU,
  0xbdd868b6be23c2d5U, 0x3d961d353e77027fU, 0x3dbbd59fbf0f3022U, 0xbe43a9df3f4cb6e9U,
  0x3f3986e83f1a5d04U, 0xbdc28f313de7483aU, 0xbe09a4183ef1abe2U, 0xbe8428cd3edfaae3U,
  0xbe94b4f0be4e8fbcU, 0xbf445816bebf490dU, 0xbba523523de12ae3U, 0x3eb7b65abcec4dbdU,
  0xbe5b0bd8bdd5b7aeU, 0xbe26f672bc864efaU, 0x3d69794d3dae7fd9U, 0xbe1b4a43bea67511U,
  0x3d3f7886bef77ec7U, 0x3d0a29e73eb205a0U, 0x3e16e1993f174c99U, 0xbf1769893f0fb1adU,
  0xbf7691243ea2f92aU, 0xbf08464ebd89c459U, 0xbf09aa3ebecb1ee1U, 0x3ddf4b85bd84237fU,
  0x3e6dcbf7bdfd5729U, 0xbd9630e2bdb8e651U, 0xbdbcceb53da0aea2U, 0x3e5d99e73bec8184U,
  0xbe24d1c1bed08725U, 0x3dc682b6be241d33U, 0xbd2750dbbea448a8U, 0xbe094fcd3e2c363cU,
  0xbf0853683e27f45bU, 0xbeabab1fbe66b4aaU, 0xbf42fb28be255394U, 0xbef1a6febe941a53U,
  0xbef83875bf078899U, 0xbdf11f8bbe97e9f7U, 0x3e09097fbe320557U, 0x3da4165e3d03cc1fU,
  0x3e7a13b13c9eb932U, 0xbe81b759bdf364e1U, 0xbf3cea78be4ec371U, 0x3d077c8d3e1c7c4eU,
  0xbd227d77bf0efcbeU, 0xbe064436bee31321U, 0x3d3557febe27d2e1U, 0xbf5e7f713dea64f6U,
  0x3c412656be898f3aU, 0x3d0bea2fbe3c1de1U, 0x3e9b3e8cbf09c295U, 0x3e3a1cebbf2827ffU,
  0x3e865683bf03f239U, 0x3e34fa9bbea0a25cU, 0xbec5c9d03da74b11U, 0xbebf2ba13d7a9e5cU,
  0xbe42a3993da8114aU, 0xbe6ac141bf01b768U, 0xbd6a7249bdd273b6U, 0xbd52aec13e406d4eU,
  0xbd1c30cc3ea7d302U, 0x3f5463a43e2fb257U, 0x3fcde7083e8c1f3dU, 0x3f84f1cfbea7cd53U,
  0x3fa830b4bf0defddU, 0x3f3000a6beefb586U, 0x3f021469be871de6U, 0x3e986622bd597436U,
  0xbd7ab1a53e34ba18U, 0x3eb447803f467f78U, 0x3f02b6873f03aa0bU, 0xbe65ee243e0b0ab8U,
  0xbdc316fabdc86579U, 0xbdeeac853f08b9d2U, 0x3eb8a9be3eecd9fbU, 0x3f832f24be3b06d2U,
  0x3f594d47bd26c839U, 0x3f56b2c9be14f9d3U, 0x3edb36ccbe84bc6aU, 0x3f1519a73e162f44U,
  0x3f2d28ec3aa2ca6dU, 0x3f019fc83e210e68U, 0x3d0dadf23e23ea37U, 0x3f5071103fb06fd4U,
  0x3e41994c3e82155aU, 0xbdf331b43d8c2a97U, 0xbe4d5375be403b44U, 0xbe1ce8b6be5fa9d7U,
  0xbd0b1266be0726dcU, 0x3e8315fa3da47c9eU, 0x3ee31bbf3e607a18U, 0x3e98969d3ef3f4fcU,
  0x3eab68d3be167d0fU, 0x3db48014be887294U, 0xbd9f29a3bd204d1fU, 0x3df8d8e83e912819U,
  0x3e4fad9a3e7e2fadU, 0x3dd1f8fd3e023351U, 0xbd937122bd7e6ab0U, 0x3c0138a1bea8d4feU,
  0xbe0e6673be3602b0U, 0x3d5940733ea84bb5U, 0x3e6667f63f58a0bbU, 0x3f06c1933f40aa98U,
  0x3f6c16ed3f885754U, 0x3f9cd0183f30455dU, 0x3f1f92c83f064f62U, 0x3eda7e2b3e0fe85fU,
  0x3e890ffa3e9e4391U, 0x3f16b9383eb30e07U, 0x3f2b3cf33ea106d2U, 0x3e8eda323ee1fc77U,
  0x3e85eae03e06be8bU, 0xbf08f85cbee62140U, 0xbc8c4d71be896d1cU, 0x3da3360d3eb31c7bU,
  0x3de392403de0ef51U, 0x3f3e4e553d535a73U, 0x3f583158bcd1ae48U, 0x3f068c17bda8d1bfU,
  0xbd3e1166bde82d5dU, 0xbd10d6b9be2b0a31U, 0xbe9e7cb43ba4970cU, 0xbe93ceb33dedcd48U,
  0x3d8aada93e42e72cU, 0x3c745d13be26042cU, 0xbe4f976dbed8b7e2U, 0xbf18c986bf31c6bbU,
  0xbe041763beda45c5U, 0xbe1cd76abe526147U, 0xbeb11c1fbf05c235U, 0xbeff7189bf25b79aU,
  0xbf4b9491bf13906dU, 0xbf24cccebeae344aU, 0xbf48d2b93e8f19c7U, 0xbf5d39c83f2c110cU,
  0xbed743d83f07193bU, 0xbf0ab9563e4c7bddU, 0xbe6eb4adbe2cb485U, 0xbe506421bf238dbcU,
  0xbf151249bf80ae8fU, 0xbea53228bf8c0488U, 0xbe252ac6bf747f47U, 0xbe00f44bbf615e31U,
  0xbeb359c1bf216973U, 0xbeeab540bf1d91b3U, 0xbeeabe67bed80501U, 0xbe9ff51abe568fa1U,
  0x3e212b853e800b67U, 0xbe034dd43f01c126U, 0x3dbe34783e94623bU, 0xbe3beab9bdb09c2bU,
  0xbf0fafedbecd3683U, 0xbea83f18bf214abfU, 0xbf3dea7bbfc0627aU, 0xbf4ac788bfbe6fe2U,
  0xbe6a5563bf16d866U, 0x3d81d431bf3416c7U, 0x3e8f7067bda1ee76U, 0x3eeea152be219fe1U,
  0x3f297715be849c1dU, 0x3e9a17b8bbff3cfeU, 0x3efadd883df67380U, 0x3e8b096f3eccf85dU,
  0xbe8c6da63d1d1780U, 0xbe25bcb13df23565U, 0xbe517edd3d19d098U, 0xbdb144dcbe863986U,
  0x3e61487ebe5ea482U, 0xbe1ccafcbf871095U, 0xbe6c7ac6bec4b064U, 0x3d24761bbe88cae4U,
  0x3f213d523e35a8c2U, 0x3f54fc6cbe867e30U, 0x3f0bd95bbe5ead75U, 0x3ef6fe0cbe3822f9U,
  0x3e4394253f06efc9U, 0xbed7aa783f7ea3ccU, 0xbeb3b19e3f1c41a4U, 0xbdb1c27a3e7177b1U,
  0x3e1b4306be892209U, 0x3f422cb23d9ff32cU, 0x3f8881eb3ddc7ae8U, 0xbea89398bf88f95dU,
  0x3d6aa213bf4ac17bU, 0xbd927430bee35df7U, 0x3e94664abe1d3cd7U, 0x3f63322cbe83b093U,
  0x3f53e222bed0a3f7U, 0x3f0a2161bdce8dfeU, 0x3e71ff373f23dd11U, 0xbd893adf3f2529cbU,
  0x3e22a6023e9b513cU, 0x3e13ecddbd789e86U, 0x3e5c5677bea38c4dU, 0x3f57296dbd3901adU,
  0x3f4bf4e1bc57104bU, 0x3e40d001bf0c35c5U, 0xbcd81853be84c3f9U, 0x3e4e7788bcba7757U,
  0xbe96e1fcbdc84d1cU, 0x3f88748ebe0df3e4U, 0x3ee79439bd5fa8acU, 0x3d7fe5bb3e98ec55U,
  0x3e27485d3eaa3cebU, 0x3f030b29bdbe9e8eU, 0x3e81ad9dbcf4a766U, 0x3ebb8cc2be8813bdU,
  0x3ebbeb8bbf192fd2U, 0x3ea820e5be56094cU, 0x3ed2428cbddf9b71U, 0x3ea995313f0c46b0U,
  0x3d4cddaf3eb3d41aU, 0x3d3392a3be5a5756U, 0x3e9a8777becbff33U, 0x3ea55918bdff33ffU,
  0xbcaf53a53f03d9adU, 0x3cf56a0c3f0193f3U, 0xbdf44c923e2cfb57U, 0x3e2fd7acbb6f15c1U,
  0x3e95720d3e4e08f8U, 0x3e7b37e1be9fead4U, 0x3e306407bf387a21U, 0x3ce6087abee6d804U,
  0x3e7ce8203db7cb54U, 0x3f21ce423e4c006bU, 0x3d814824bd909b71U, 0x3e39f98abe291011U,
  0x3df9664ebf1e9b48U, 0x3e94bb9fbef72eb1U, 0xbe8b99213e1d3e74U, 0xbe0fb0373e511e2fU,
  0xbeca51373e76b4baU, 0xbda44ae63e3919b7U, 0xbdb35d883e43170dU, 0xbdc70a13bc2f939aU,
  0xbe2f0a56be7910f5U, 0xbe92ac4abe889832U, 0xbebd83473e96f11cU, 0x3f227c6d3f002323U,
  0xbe850c90be4dcf8fU, 0x3d153ae73e92c2d3U, 0x3edeebe7bec44e77U, 0xbe3e31bcbe58f885U,
  0xbf2b3ac73db215dcU, 0xbf1a706f3ea07b39U, 0xbee3dea13de13ac9U, 0xbe0132693db99187U,
  0xbe6e6db3be042dfbU, 0xbe7de824beae80ebU, 0xbf040f1ebf3f3662U, 0xbee2d172bf1d4195U,
  0xbee4aac2bee9354eU, 0x3e1aa94ebdab72f6U, 0xbd740ffcbdd954f7U, 0x3d4dc71ebd4fb938U,
  0x3c103c5d3a80b3d5U, 0xbec65b513da15f98U, 0x3daec5193d1a2a61U, 0xbbf3b732be392896U,
  0x3d6af253bebe1cacU, 0xbecc2ebbbe836054U, 0xbe623e4fbda2170cU, 0x3da80470bdefe096U,
  0x3e962d093e1673eaU, 0xbcffed953ceea79fU, 0x3f09495e3ec8c526U, 0x3e2e27b2be15063fU,
  0xbe3300f5beaae20dU, 0xbe1c572e3df86373U, 0xbd4331c33f0af6e6U, 0x3edf309d3ea900d8U,
  0x3f24fe7c3e8c4205U, 0x3ec467db3e889f53U, 0x3e9914dc3e89ab6eU, 0x3ea796c63ea03884U,
  0x3e9894193ea819b4U, 0x3f0099103f13eb1bU, 0x3ed13c1e3f0c8902U, 0x3d20a5763e961cf7U,
  0xbecaae8ebe8ed0c7U, 0xbe227d31bd893bd7U, 0x3d4a67713e07e692U, 0x3cb2e2033ebce73fU,
  0xbd86fc503e509c42U, 0xbd53022a3e93ec9fU, 0xbe1afa233e50d6f3U, 0xbe94bbf93e47f539U,
  0xbe3746b7bd3da104U, 0xbeda011bbe866f70U, 0xbe8dce29bdab44abU, 0xbd8cace2bc1d7670U,
  0x3b8d478f3d9f9e32U, 0xbe20c7503cd5f8feU, 0xbd89b1b03e27ab18U, 0xbca6352a3eb9dd79U,
  0xbc6fed423e59f5fcU, 0xbd9533fc3e17e9adU, 0xbe949903be95a0ddU, 0xbed8f6f6bf0ecc5dU,
  0xbf063fc4bf4104d2U, 0xbed8d949bf2451e7U, 0xbdf41d28beb1ebdeU, 0x3ceb0e81bee80fbaU,
  0xbe91dd59be34aaaaU, 0x3e411cafbdd93d5cU, 0xbd994182bd1e1a7dU, 0x3e82e8483e0ffb74U,
  0xbdc0d236be14ada3U, 0xbf08ad5bbdb9c996U, 0x3cc42c5b3eb7ad40U, 0xbe338814bf14832eU,
  0xbe9b6801bf5a303cU, 0xbe95a33bbf0b458aU, 0xbeadad29bee14264U, 0xbe9212a6beae864eU,
  0xbddd96b4be2ecbe8U, 0x3e0294a4be64aaebU, 0xbdc3b3b13d17b54bU, 0xbd9eaa533e58aa83U,
  0xbd18fdde3e12de20U, 0xba7d5ce43e80281dU, 0xbec09dc43ea2b039U, 0x3d416734bd493ad0U,
  0x3dcba97abce3e140U, 0xbe015803bf82dc08U, 0xbe49a957bf35a529U, 0xbdc81e7cbeeca47dU,
  0x3f2c4c35bec112e0U, 0x3ee9e67cbef57d2fU, 0x3e8d763fbe9e1fb0U, 0x3e1c7783be14aedeU,
  0x3e654038be1580ecU, 0x3e188b543e5797b4U, 0xbde8dfcd3e82641aU, 0xbd271cf73ec167ebU,
  0x3e29e2993f089facU, 0x3e8a94013e2ca2a5U, 0x3dd6941abf2018c9U, 0xbe8faa3fbf0398eeU,
  0x3f3c5417bee061c2U, 0x3f324b2abec75076U, 0x3f7a0a3dbe8763fdU, 0x3f2dda83bd7e4ef9U,
  0x3f0f541ebe355f5dU, 0x3ea996d8bebd778aU, 0x3db22f443cd38b0aU, 0x3e245e683e5d663cU,
  0x3dc23f0b3eabaec8U, 0xbc12522e3e9a4ae5U, 0x3d11bc6c3f22364aU, 0x3f16ef7b3f2db7e7U,
  0xbd9c75263e14309aU, 0x3e8897e83dd1f79dU, 0x3f0f00d5bf069ae2U, 0x3ee0bd25be934656U,
  0x3f3d52eebdf0f981U, 0x3f781cf03e423dfbU, 0x3f8326ee3de4dc59U, 0x3f5b901dbe2f6932U,
  0x3d74ffc1be8c0073U, 0x3e31b78e3def4bdfU, 0x3de0874a3eb58f5eU, 0xbcfbdbc23ecc28f4U,
  0x3e8c40083f02769aU, 0x3f1147b93ea0d6eaU, 0xbdc994763e2f57beU, 0x3ed39a56bef938d8U,
  0xbdea0a5ebeb9661cU, 0x3ec297c63dc4de95U, 0x3f4b7c663dce35eaU, 0x3f0f81613e5b7243U,
  0x3f3c3c783eb57d1aU, 0x3ec3e202bebf8584U, 0x3ec3b788be89b37dU, 0x3e12c3d43de80c7eU,
  0xbc14c6f83e902b62U, 0x3d87eef23ebc5c59U, 0x3f06621c3e774a84U, 0x3efa4e0fbf4bee69U,
  0x3d9b359a3f2102d6U, 0xbe2aa7bcbedda9b1U, 0xbdba269f3c1981a7U, 0x3eafbf513dcec048U,
  0x3f12bf293d4f13daU, 0x3e38aebc3df1fb9aU, 0x3ef3999e3dc57efbU, 0x3eb4f213bea59a60U,
  0x3da2c3cebb435392U, 0x3d1105463d72211fU, 0xbf0b99993e19477fU, 0xbe5552aa3dfd8a5bU,
  0x3c97805ebc8731d5U, 0x3f883593befd414cU, 0x3c4567713d77bb24U, 0xbe1253f5be9cc77dU,
  0x3e88b690bdefbfa0U, 0x3e5e35a73e8b2501U, 0x3e8d86b9bd9e8a53U, 0x3f7a4dc03cd54e87U,
  0x3f837cc03e0ecc81U, 0x3e13d795be07f720U, 0x3e286e6e3cb30cc5U, 0xbe24dd863c803ad6U,
  0xbf0e8655be1808b2U, 0xbf000283bee99a53U, 0xbd72b231be69761eU, 0xbd1979fbbf3ca0a6U,
  0xbb938ec93c865662U, 0xbe5b4a60be9afa45U, 0x3ee1d761be6e8976U, 0x3ee8d59bbe7d9695U,
  0x3f23a906be6fcec1U, 0x3f7788b93cda29ffU, 0x3f7c65e13e0f6ec4U, 0x3f4b9300bddc3acbU,
  0x3ea5d670bdadead5U, 0xbd3e2c2ebea11f83U, 0xbd03dedabe6ce801U, 0xbc28cacfbe103d71U,
  0x3e2acf0c3db126b7U, 0xbf6be475bf4a6083U, 0xbd3220c83ef49c6bU, 0xbe98d08bbf0f1654U,
  0x3eeac8adbe820c48U, 0x3f516eb8be8f25f0U, 0x3f5dd6f5beab6ff7U, 0x3f18c4f3bca1a4bfU,
  0x3f545ab5bd8a3bd9U, 0x3f0356b0bd20a66bU, 0x3b7be0c03d6e8afdU, 0x3c3159683d02b37cU,
  0x3dda6c0b3cd076c9U, 0x3e8639843e9dda09U, 0x3ed23106bde66751U, 0xbf3bf1c4bf13a4fbU,
  0xbd58e821bc747f21U, 0xbe2a9c62bf0241ffU, 0x3ea4838fbe5f952aU, 0x3f88bba0be8562e8U,
  0x3f30ade5be5237b4U, 0x3f033b3e3acd219aU, 0x3e9d6d4c3e829de2U, 0x3d2976ec3ea9ac75U,
  0xbd66cb403e171111U, 0xbc3812093dcbf2ffU, 0x3c7ec50cbe5bccd0U, 0xbcb9e1acbd7b6bf5U,
  0x3d7afcb5be731a9bU, 0xbf0cba183bfbbbeeU, 0xbd2a30fe3e3e7feeU, 0xbdd1e849bee520f1U,
  0xbec6264fbf28c84bU, 0xbf099a3bbeffe8efU, 0xbf5bf375be496633U, 0xbf058435be107fefU,
  0xbee26e203ddd50a9U, 0xbec1e1a03e3da00aU, 0xbd75e9c03e457c52U, 0xbe837c713e98084fU,
  0x3db645063e242ad1U, 0xbe689c4abe80b2b2U, 0xbf1e7069be2979c5U, 0xbe2d8390be43e37eU,
  0xbd56a7673eb42c00U, 0x3e0cab2bbebc2204U, 0xbe08495dbf9768f9U, 0xbf421a3ebfadd131U,
  0xbf79da2ebf456e57U, 0xbe45187fbe69fcf2U, 0xbf037aa9be499cf0U, 0xbf0849f4be8fe923U,
  0xbecd8f4c3ea91e94U, 0xbd84f71c3d7517d3U, 0xbf0442c8bf68932bU, 0xbf798b92bf79549cU,
  0xbdaf99713cead148U, 0xbd65cc103e686104U, 0xbd27ed88be07269cU, 0x3de7319abe32b9f2U,
  0xbc8c68b0bdd12cadU, 0xbd605a8ebe70d100U, 0xbe627ab7be523367U, 0x3b813b973dbc35a2U,
  0x3de7ea68bc94958eU, 0xbe46e973be9a4b8eU, 0xbe26b0c9bea5edbaU, 0xbebaad16be5d3b4fU,
  0xbd8aba36be1dfb35U, 0x3d3280b8bddbc1feU, 0xbcbf4b28be7d8fc8U, 0xbdd16ea3be877751U,
  0x3cd5ac38be7fd147U, 0xbd759e45beb423beU, 0xbd4db4eebf1245b2U, 0xbe2d2f4dbf54646dU,
  0xbe8537abbf7c7cc6U, 0xbe9aa6b8beb85a65U, 0xbe2d269dbec50db5U, 0xbf0524f4bed26ac7U,
  0xbe904e4dbe0ca79cU, 0x3e8ed80f3e0ac348U, 0x3c12d9fb3d625cdbU, 0x3de07faebe8bea95U,
  0x3eb598f1bed3196fU, 0xbdf7cb9ebe859479U, 0x3d585420bea7429dU, 0xbb67326cbe2b8887U,
  0x3c0637f2bec29fcdU, 0xbee392d6be8b9639U, 0xbbec4123bee68138U, 0xbf7c279dbf4bc364U,
  0xbf4eef53bf1ff229U, 0xbf3287acbf145502U, 0xbf5dabbcbf06afd9U, 0xbf1d6ce83df5a340U,
  0x3e2dd4a03b0f77dfU, 0x3e002f2d3e553510U, 0xbe730a8dbdda548aU, 0xbe48d8cabf52f281U,
  0x3d2c0462bc61e12dU, 0x3e2b4130be24fae2U, 0xbd7fc3bbbe861deeU, 0x3ebe387fbe4dda5fU,
  0x3fa94764bf4cbfedU, 0x3f416992bf43dd04U, 0x3ec0adb4bf069ccdU, 0x3f79dd54bf1aa89eU,
  0xbe7236a8bf31166eU, 0xbee94085bee893d2U, 0xbd7fe7b0bed6ad0aU, 0xbe9b3f9fbe4fe644U,
  0xbefe6d11be3f7cf2U, 0xbf3531acbf6c4ebbU, 0x3c48b3f63f44294aU, 0x3ebf173b3f897f49U,
  0xbe8fa1e33ea8f339U, 0x3f1e41723dd84d98U, 0x3f9eedcbbd9b0bbaU, 0x3f80b7b2be4b8273U,
  0x3f78447cbf4433e1U, 0x3e8f1b5cbf4ad3d6U, 0xbefb43b9be3dbed3U, 0x3e4b7969bea5fc7eU,
  0xbe13ee01be0fcf6cU, 0xbe53d55ebd91e0afU, 0x3ed365083f13ca54U, 0xbe0c7494be94b9c6U,
  0x3d9df2c43f878e8bU, 0x3ee2471f3f833b26U, 0xbe1b59543f1cdb69U, 0x3e9808ebbd92b0faU,
  0x3e966ddb3dc2e269U, 0x3eece53d3e95d0d6U, 0x3f826fb23e779c09U, 0x3ecea5b4bea970ffU,
  0xbf0b0c39bd2a0da2U, 0xbdfeb16e3ecd8f38U, 0xbe99de963f15a822U, 0x3ee5919b3f1787f7U,
  0x3f3a49213eb2adf5U, 0x3f05f04a3dde4d8fU, 0xbcc93afc3f67d936U, 0x3ef506c53f1ece85U,
  0x3dcb59fd3e947457U, 0x3f4fd1c03cf24ba4U, 0x3ed6c7703e3dd2b6U, 0x3f2f8d423f0de6b7U,
  0x3fbc76a43e3a2db3U, 0x3debdc52bdfdfa22U, 0xbee247863ec7e803U, 0x3ebc62f63ee707cfU,
  0x3c7d62c03ec60c80U, 0xbed273fcbd16873cU, 0xbe224116bdb46552U, 0x3d067e3ebe98a090U,
  0x3d8ee1f63f68103fU, 0x3f9803a23e882991U, 0xbdb406583ecc7c5cU, 0x3f5a75413eec6e3bU,
  0x3f91acc73ef7eabdU, 0x3fb1fac1bdde2c5bU, 0x3f59e279bf725599U, 0x3eb2e4b0bf14c850U,
  0xbdbfcd3ebe276a9eU, 0x3e8ddbd5be40cbcaU, 0x3e9ebb61bd267474U, 0x3d3fffb7be149502U,
  0x3e50265b3dfae06bU, 0xbe9cb2f0bf2c81d2U, 0xbd3178a63e05827eU, 0x3d5ee3bb3ef14071U,
  0x3f641e543ec6f535U, 0x3f34681d3f00c6aaU, 0x3f610dc63e124efcU, 0x3f61f840bfac17c9U,
  0xbe0e41abbfb60b88U, 0xbeb9a456be9955e4U, 0xbd2a7442bd54182dU, 0x3dd214323e9f71afU,
  0x3e6518503f09e532U, 0x3f06fc5f3f1c9d35U, 0x3d7a76e4bdc6c469U, 0xbf014452bfc7ed69U,
  0x3d0e0564bd216ad3U, 0x3d086f473ef50414U, 0xbc15d93e3ecc0e0aU, 0x3d3e857ebdff615cU,
  0x3ee62c8dbf7b61b7U, 0x3e2d97bbbfba654eU, 0xbfb1c1e4bf0f44e5U, 0x3e6fa3b83db260eaU,
  0x3ec025a63e55c60dU, 0x3ebab8f63e1f31eeU, 0xbd89a7993ebbec4dU, 0x3e2640853db15b1cU,
  0xbee4ffd1bf22738eU, 0xbe6bcc46bf23d062U, 0xbd772299be290152U, 0x3e65d64abe5f75c4U,
  0x3def0d8abe8271a0U, 0x3db9bb22bf097871U, 0x3ea23e00bf9ace9bU, 0xbe9a8a2bbf094115U,
  0xbcbaa37dbc702ceeU, 0x3ea741663d21fb80U, 0x3e18b4963df0b7afU, 0x3ea09a353e07ef9cU,
  0x3f06c64abdb55dbaU, 0xbd311f83bf398941U, 0xbf5e7ba9bf8fb806U, 0x3f0a24183ec94a51U,
  0xbd97b75abea7ecc5U, 0x3d4e2ec0bf52e618U, 0xbf6760e7be47c359U, 0x3eae38abbf0ace7fU,
  0xbef88aa4bd246e68U, 0x3eda0944be78f6f4U, 0x3cf1a129bd35b1cbU, 0x3da07b01bd03dbd2U,
  0x3e2c67533d859c14U, 0x3df7a0073dc354e4U, 0x3ec6c5c33e1f560cU, 0x3d05cfb2bed58c63U,
  0xbf59907fbf8f6690U, 0x3edd5c0c3ea9525dU, 0xbd301f28be5a7da6U, 0x3d93d610beb15b54U,
  0x3e9e5ac63d699496U, 0xbe14eb863ec8aedeU, 0x3e232f583e5e1103U, 0x3e81b94b3bea2b23U,
  0x3c110d9ebd08477aU, 0x3ebf3a103dba242eU, 0xbcbe8265bd0d2b23U, 0x3ef109c93e7f4341U,
  0x3e53a44f3e2c2561U, 0x3d1e5f76be60bee1U, 0xbe831f91bf826e67U, 0xbe369abfbea5c8dcU,
  0xbd877b62be9f1eabU, 0x3d8e7d50be43402eU, 0x3cd356c8bf15f8b7U, 0xbf124285be8c6085U,
  0xbd896df6be3fad5dU, 0x3d49bcc03dd01216U, 0xbdb96cc6bd5b0c05U, 0xbe2078483e986cb7U,
  0x3e2cf9703e094aebU, 0x3e8835ba3ebd06fbU, 0x3ef7e6db3f13f437U, 0x3e6c454f3d7b681aU,
  0x3d3b8845bf32c1d1U, 0x3d453000bdc9ce97U, 0xbc196b86be0b8516U, 0xbd890b2cbe870d00U,
  0xbc7c97b1be21c791U, 0x3e914bac3e04059fU, 0x3e87c5d23e0b1c83U, 0x3d9cab343f0daac2U,
  0x3ede741b3eed9a0fU, 0x3e7988333eff2287U, 0x3f0fd62c3e906236U, 0x3efc41723f261ad4U,
  0x3ebfc0fe3e9c92d9U, 0x3cc20ee63deb6745U, 0xbd64ac72be0332b7U, 0xbde500f3be249f8aU,
  0xbe0b3b1ebe3a6ed8U, 0xbd54c9f63d6b2a4cU, 0xbea9843fbdbf3137U, 0xbd489015be01a63cU,
  0xbe06c7d63e703931U, 0x3e8b30dcbd0f0640U, 0x3eb6ea7b3d765b6bU, 0x3d739a0d3dd7c9b4U,
  0x3f2117643d0fdc38U, 0xbd6b26d63ee6bf5eU, 0x3d5f85c13ef1f5d1U, 0xbe98e9c53f002c12U,
  0x3f14577a3f397658U, 0xbec009dfbe2d7c8eU, 0x3e2f09c5be59b470U, 0xbd9fbaf0bdaf1929U,
  0xbbf7367bbf0af4bdU, 0xbdec25d6befe7ed8U, 0x3ec84855be06da27U, 0x3e5307cabe664443U,
  0x3e2919b2be40f47bU, 0xbe0e59b2be80bf47U, 0xbdc61d7fbca41d8dU, 0xbea0d1ce3d4bcf50U,
  0xbeda51d3be0e29cdU, 0xbf384b3b3cf62e96U, 0x3d842dd6bd28758cU, 0x3f0fcc833f2b8bdbU,
  0x3c749ab13e984734U, 0xbdef9bafbea03f75U, 0xbde89aa2bdb93cb4U, 0x3eb023df3b1cd0cfU,
  0x3ea917f53e863e16U, 0x3f17042d3e61fd95U, 0x3d11f35f3e7541d3U, 0xbe6ce00f3eb28f55U,
  0xbec852273f0f5597U, 0xbe31c8523ed5242bU, 0xbeac344c3ea36e7cU, 0xbedfa59d3e70764dU,
  0xbe95b3983e95168aU, 0x3f6e3db73f8befbdU, 0x3e13ed9b3df74c9bU, 0x3d7cf102bf5b28aaU,
  0x3e9a3dd8bebc2a78U, 0xbead8e1f3ea33174U, 0x3cf4a3d53e690898U, 0x3e4637ff3e6ca8c6U,
  0x3d91c2eb3f213ccaU, 0xbe5d6ee23f3bb9e4U, 0xbebf47503f2d7308U, 0xbee4082b3ee7e12dU,
  0xbeb9d5363dd146ddU, 0xbf1e47a43a9e23b8U, 0xbe4f1b473d82d452U, 0x3e4e2caf3ddd1b0cU,
  0x3d15c2033eafc6d6U, 0x3e6efc0bbebd4d35U, 0x3e107bbbbe3c0f0aU, 0x3d1f7ed33926f10cU,
  0x3ecb74f0bcad647bU, 0x3e35458c3dcee31bU, 0x3cec61ba3e7642c8U, 0x3ed202bf3f22362aU,
  0xbe94f7533e469eaeU, 0xbeba00febe8a882cU, 0xbf19b72cbf0247dfU, 0xbf5e2ed5bf2571f6U,
  0xbec10299bebbc1eeU, 0xbe18d8acbe8ca378U, 0x3d5be9b13e33ef0fU, 0x3de2d6b6bf85f7b2U,
  0xbe1de73abe3b4a1eU, 0x3e975cbebe80b6ebU, 0x3ee79dfbbc1c15eaU, 0x3eafd569be571f76U,
  0x3f210a68bf19fcceU, 0x3e45840cbe1304e3U, 0xbed42c03bda384adU, 0xbe0594a8beefe043U,
  0xbe83a5d3bf326a11U, 0xbe237116bf2700c1U, 0x3eabc2cdbf32562eU, 0xbf02a900bf5ae593U,
  0x3dbabc71be0ecb91U, 0xbd93c64dbf5fbc0dU, 0xbf4d0907bec6218eU, 0x3e97f630be7fff01U,
  0x3e9714093cd54115U, 0x3edfc1b1be13a82cU, 0x3f2f8ee8bf2755e0U, 0x3e2a330cbeeb44caU,
  0x3d1c2373bef35efaU, 0x3cfb136dbf11a75bU, 0x3e55b71cbebb7c40U, 0x3f0dbab0be7834b7U,
  0x3f1af8293e235c32U, 0xbe5d3298bf53544aU, 0x3db5d882bf541e24U, 0xbe59d28fbea0d477U,
  0xbdbc3fb7beb83306U, 0x3cb71ba0be8523f0U, 0xbefa4c0e3d5c7a38U, 0xbdaf36bfbe62aab4U,
  0xbe23b737bf1763d7U, 0x3e562346bf55a35bU, 0x3eb4c6ccbed2093eU, 0x3ea49dfbbe84d5eeU,
  0x3ebbed3fbe89cfdcU, 0x3ec442d1bd0e2a67U, 0x3f0ca89dbd763001U, 0xbe0db840bed33dfeU,
  0x3d63df2fbe037f54U, 0x3d1d19883dba4d1aU, 0x3dc4741bbd4d9698U, 0x3e0a624dbe5c7d5fU,
  0xbd815486bea1c720U, 0x3a1eb272bf2ef6d5U, 0x3e1aa2c9bf2e7a8cU, 0xbb343022bf1d7e04U,
  0x3de9d361be53fd60U, 0x3ea411ccbda7f46cU, 0x3e887696be6c9ac6U, 0x3f0ab6903cffa047U,
  0x3e9cd3363d8073b8U, 0x3e4b8398be150ba4U, 0xbd0d81ec3d5843b8U, 0xbdaf6841bc87480cU,
  0xbe83af543e45c941U, 0xbde501edbd5b696bU, 0x3d7c285ebe17b9c3U, 0xbddc89693dd9b152U,
  0x3e8443783f0373e6U, 0x3ed509bd3ea7d0edU, 0x3e792f963e7ba80aU, 0x3d4aafb23d9f266bU,
  0xbc75593a3e27f7b5U, 0x3e487be43eabf12aU, 0x3dc2d9393e03be82U, 0xbd648d0bbe55479fU,
  0x3deda53dbef79a8dU, 0xbc4a7b513daeb2c1U, 0x3e8acb72bd01dca8U, 0x3c8d2cfdbd7bd87dU,
  0xbf19eb023ed5762bU, 0xbe430d1e3f0fc28dU, 0x3d8889723f428b54U, 0xbdcae30e3f3b44f0U,
  0x3e8c54c93ed84b00U, 0x3e15d5913d843d44U, 0x3da68185be140f4eU, 0xbdda37b3bd35f841U,
  0x3ed98770be371e4eU, 0x3e53d47abea31b15U, 0x3c5d5204bea3620cU, 0x3c1333e73f4231a8U,
  0xbe2098b13f236ab6U, 0x3da608963ef521feU, 0x3d766d653e497639U, 0x3f0d238e3f0212a2U,
  0xbd05fdc63ebdd1dcU, 0x3ca954743ee15146U, 0x3cd90fea3e8913fbU, 0x3ccb5b253da148c2U,
  0xbda45ad9bd7fdc5bU, 0xbd6f55cf3d79509bU, 0x3f3872063ed771ebU, 0xbe9c7b5e3de5f327U,
  0xbd8a5dbfbdeef40bU, 0xbd1a696a3e504bbdU, 0x3e00a06cbe1f368eU, 0xbd689b563f11040eU,
  0x3f156af23f14eba3U, 0x3e2f2b323f4cc9ecU, 0x3e1263d53f2a07beU, 0x3cea37ee3e983f74U,
  0x3e175f013ca936daU, 0xbda57d3cbe00e484U, 0x3ee173173f0f69e7U, 0x3ebeeaa53f0df54dU,
  0x3f184d443f8211e4U, 0x3d94d4c8be4947e0U, 0xbc97c2143b8b0c80U, 0x3dd84514bd9610a8U,
  0x3dace2d4bde5770aU, 0xbd9affa73dcafddeU, 0xbdc0904fbdd47fbaU, 0x3c053d91bdd95ebeU,
  0xbd5e59f63d6138a0U, 0xbcd26335bd264b7cU, 0xbe3350f1bda476b2U, 0xbd02d370bd256ebfU,
  0x3db5808cbd49f1c1U, 0xbd25760ebdde4fd9U, 0xbdcac3893d664180U, 0xbca8a3083db97c3eU,
  0x3d8c92c43cd28470U, 0xbdef6fae3d9dfc9aU, 0xbe274ff8bc8e3904U, 0xbd08f3b7bc83152cU,
  0x3da96653be01af01U, 0xbdcbf0de3d15f68fU, 0xbdbf5907be07a039U, 0xbcb06994bd543cd0U,
  0xbdc0bd0ebc9ec06eU, 0xbdcbec21bc5d1df3U, 0xbce2a85f38bbcb6cU, 0xbdf0ebfabe19898eU,
  0xbd9863763cfa8675U, 0xbc033960bd8ea51aU, 0x3daae2223d6ab31cU, 0xbd90323abc975028U,
  0xbda26d73bd6be321U, 0xbdd4578f3caf905dU, 0x3d926bbfbe155c3eU, 0x3d8bb1d53e1a4e02U,
  0x3cdda1cd3c6c360bU, 0xbd6ad231bdf5f877U, 0x3d8ab7afbdbcd3b4U, 0x3cbe048abcde0119U,
  0xbe37f7fc3c5a3a06U, 0xbdc8f88fbd8537d5U, 0x3d6a0848bde72305U, 0x3dda87d4bcd5f65cU,
  0x3cb791f0bde0ebe2U, 0xbe20547d3bed2ae0U, 0x3d5e1c8d3d0c7693U, 0xbdf364113d768bd4U,
  0x3d6e5899bdfbda0dU, 0xbc0827213be72658U, 0x3db6bf47bdfd073aU, 0xbe1bc6aabd4e01eeU,
  0x3d136eae3d517eebU, 0x3d359961bd8d4623U, 0x3d95ec743d00f1a2U, 0xbe2c0f45bdcc3adbU,
  0x3d4b826dbdbfc436U, 0xbcc4f297be2fa13aU, 0xbd5e27ba3d74e800U, 0xbce904bfbe00da40U,
  0x3c1ee554bd432ee0U, 0x3deee674bc95255aU, 0x3bf604be3d3ea74dU, 0x3e0275d6bafd6857U,
  0x3da3c0e8bde88396U, 0xbd11e4d6bdce5bfaU, 0x3c71dd1dbdf9ec8aU, 0x3b371d8dbc320c5aU,
  0xbd2cbebabdd26e32U, 0xbccbb63dbe210a6aU, 0xbdf556bcbce72655U, 0xbe18c2e43d179747U,
  0xbddb6f483c918dc8U, 0xbda57fd23e2413a4U, 0xbdff13fe3dce4c38U, 0xbb0831fdbe0f6c4dU,
  0xbd5b6f293dd125deU, 0xbcee6b46bdb28920U, 0xbd971a24bdb2aa6dU, 0xbe10655fbe14fdadU,
  0xbb8798ab3ce2e309U, 0x3d96885a3cfc58dbU, 0xbc65ce40bcfba88aU, 0xbca00e9d3d527da3U,
  0xbe1a7786bc80e3eaU, 0x3cceedf4bd0dfdecU, 0xbd5a1666bdbde58dU, 0xbdb3ae293e237de4U,
  0xbe0ecf8ebda02a57U, 0xbe0a74a2bc0c1c82U, 0x3dcdd8e9bcfa54b1U, 0x3d161eeebb8a9057U,
  0xbc61926c3c73ec98U, 0x3cc9d7913cb6bcedU, 0x3e2110b9bae95f5cU, 0xbc8c34dfbde03496U,
  0xbd587b053c7ac48cU, 0xbd805f7bbda80518U, 0xbdae1a703bba9161U, 0x3c2fe8e33a4675bbU,
  0xbc87b71cbde97f50U, 0x3d15f484bde22015U, 0x3c15d268bde773b5U, 0xbc8fa080bd535178U,
  0xbd0ef01cbdde64e2U, 0x3ce3911bbe0b3849U, 0x3d368f89be22201aU, 0xbd94dfb2be300a54U,
  0x3d3507dabda29c5eU, 0xba16ac683c2ee60cU, 0xbd45376cbdef7a9eU, 0x3c5746c63d267526U,
  0x3d18872ebddbddb6U, 0xbd4a094cbdce7404U, 0xbcaf37043c9ab528U, 0xbe3674e1be0fba86U,
  0xbd26a15abd968eeeU, 0x3d88e035bddf464dU, 0xbde23da8bd3ff85dU, 0xbd1a72b23cca4a6bU,
  0x3d58c9203ce8dd4dU, 0x3ceb1b5b3d43b3e6U, 0xbdc7b3783d85d1dfU, 0xbcde9ca3bd48aadbU,
  0x3d101352bd70a134U, 0xbd0eed61bdef3ab5U, 0x3c446d90bd2d9566U, 0xbde741a3bd5bd8dbU,
  0xbd41762a3c8c4578U, 0x3be4bdf9bbac68d7U, 0x3be24319bd8b69e8U, 0x3c8071883d1df11bU,
  0xbe179d2bbdd3e73bU, 0xbdc7cec4bde605bfU, 0xbdb247c5bdf00949U, 0xbcad128abce0625dU,
  0xbd8fb6cb3c93ac1eU, 0xbdaed86fbd2a53eeU, 0x3d59d13cbe0984f2U, 0x3d58bb52bd8bba38U,
  0x3cafa9cdbd2adfb9U, 0x3d3d06763cd73baeU, 0x3cd366803d8439f4U, 0x3dab0e083d269d85U,
  0xbc8e0c14bc96e1baU, 0xbd14f568bd9778abU, 0xbddfa4e83bb54093U, 0xbdb12020be064d54U,
  0xbe2d3d40bcedb4c5U, 0xbd5165ccbda511edU, 0xbc9d42493cf69620U, 0xbdd850623d844fb3U,
  0x3c26d041bda9dd0aU, 0xbdb6ab4a3db5bae5U, 0xbd4871193dac92e3U, 0x3e0d8c89bd49d390U,
  0xbdbd3cc33de58078U, 0xbd67bd2ebdf92501U, 0x3b149840bc1f6208U, 0xbda55250bd686b5eU,
  0xbd0fc1a1bc8fca48U, 0xbe2a6a1e3d16d0f6U, 0xbcd381b7be386142U, 0xbdd8240abe073652U,
  0x398d75383d27a1bcU, 0x3da1504c3a71fa3bU, 0x3c1a5eee3cc5d046U, 0x3c2f51fe3d8b7ed4U,
  0x3df807903bc58d84U, 0xbd2d71e03db572e0U, 0xbd7a464d3d6a5764U, 0xbd52b21abc5b51a8U,
  0x3c80a6e0bdb72d03U, 0xbdde8e55bdfca471U, 0xbe2d42d63cc68580U, 0xbd5c3d85bd3f5c86U,
  0xbe338396bddb8b2aU, 0xbd857749bdd99790U, 0x3c852e9fbc638118U, 0x3dbbbdf8be0013d1U,
  0x3d73bf5abcfa4f94U, 0xbd8c27b8bd7e7420U, 0xbdf01cb6bd409e48U, 0x3a4ede00bcdb7268U,
  0x3cebd3303c34c6d0U, 0xbd8478263c425350U, 0xbcdc4cd0bc6f2df0U, 0x3d84acf63d438258U,
  0xbd7dcf62bd8571d4U, 0xbe34d0813dac7993U, 0xbc1081e73d443cadU, 0x3d0ba46b3d1f7a1fU,
  0xbd9ff16a3a1d7789U, 0x3c886714bc0e7a0bU, 0xbe378985be2cceb6U, 0x3dec370ebdaecabbU,
  0xbd89de9a3d73555cU, 0x3ded46423d9a83e8U, 0x3dc1d5763e7760afU, 0xbd597f213e80ac23U,
  0x3c9bcf003e6f1b39U, 0x3de052493ebbd6c7U, 0x3ecace4d3f006659U, 0x3ead4d173f3f17b7U,
  0x3e8514b83f02f94bU, 0x3ec1d1ef3eb31f1aU, 0x3e3de8d53ef3838fU, 0x3e090f783e73d407U,
  0x3e793b5a3ec53e6cU, 0x3e4791293e0d8c69U, 0x3d9361b63ea00929U, 0x3d5308a13de9ca62U,
  0x3c4fce493ea4ebb4U, 0x3e3166993f0b2b51U, 0xbdcfbfbc3d1a9bfcU, 0x3df5709f3e8d706fU,
  0x3e54df513e90b80eU, 0x3f00c0b23eab7b00U, 0x3f0d52ef3ee2e846U, 0x3ebef452be08f9afU,
  0xbc19d40d3ae7aa7dU, 0x3e146aa4bebdd162U, 0x3ef2b487ba8047ddU, 0x3d84a2563ddc1282U,
  0x3cd08a833c68f9eaU, 0xbda9d60e3ece6bb7U, 0x3dd0a3af3e91a14aU, 0xbe83293ebb8749e3U,
  0x3d9a5a0cbd9cfed9U, 0x3e427e6c3d5a4dfeU, 0x3e82bca23e22e0eaU, 0x3f81699ebe885b11U,
  0x3f1bf11bbe9f6900U, 0x3f3da7aabe6155caU, 0x3f2f08babe097eb5U, 0x3e95613dbe095d66U,
  0x3f4546b23d5f0401U, 0x3f1d4e7fbd546c9eU, 0x3eb3385dbe571e48U, 0xbdec9fd9be1e9ddbU,
  0xbd6399973dcdc475U, 0x3e44b9173d939f50U, 0xbdf6afe83d7ec4b2U, 0x3b1bf94fbe48e589U,
  0xbcf8c324bf07e82fU, 0x3d3be723bedd8b53U, 0x3e9b8241becf2f48U, 0x3ecd3f97bed05662U,
  0x3f07b559bea78592U, 0x3eac898fbee764b9U, 0xbdce5bc4be125656U, 0x3e6a65babd4f602cU,
  0x3eb34b33bdaa30c9U, 0x3dcd2d30bdb123c4U, 0xbd9b9a47becfbf5bU, 0x3e3becfa3def2547U,
  0x3f416239bf05a263U, 0x3ed3826dbf52db5eU, 0xbf17329abe9acae5U, 0xbed938efbea92e36U,
  0xbea95c38bed9517aU, 0x3e32391bbec136ddU, 0x3ee7780bbe92722fU, 0x3ea65593bea246a0U,
  0xbd02ff4fbea9fc84U, 0x3e7df1d5be10ab8aU, 0xbeac1689bee45c04U, 0xbe1ae025bf4a5ceaU,
  0x3cfccc3ebf09730fU, 0x3e54eea4bf08cfd6U, 0xbe08350fbd7343c3U, 0xbea917b5be8af3a7U,
  0xbf5add93be8c7917U, 0xbf1e46adbebc66dcU, 0xbf0b0dc6bf0d977bU, 0xbe8cda56bed5f509U,
  0x3ef36f2ebd75f798U, 0x3df9ef90be6044d5U, 0x3e2b14f4be3b8930U, 0x3e8fa55d3bc2c712U,
  0xbf028e99bf29957bU, 0xbf01dd12bf317950U, 0xbc335fa43ea9afc1U, 0x3d165496bf53d5d5U,
  0xbe5d2ef1bf02edf2U, 0xbeabbe6ebcff64d1U, 0xbf2a9ea83ea277a2U, 0xbf2e6eed3ee99d8aU,
  0xbe7c3b073e299208U, 0x3ec6737abe49beeaU, 0x3e0dbac2bea849caU, 0xbd80b674beb6571bU,
  0xbd9e45d43bfa55e9U, 0x3db560b23e3d3007U, 0xbeaaac7f3e06ce92U, 0xbec0fe20bd80b18fU,
  0xbe1542273f60eb9eU, 0xbe17988bbebcafdbU, 0x3e1d416e3ad88953U, 0x3f00ff2b3ee02b27U,
  0xbd1c70593ee902e3U, 0x3b8591e53e85390cU, 0x3ec21e053ef60639U, 0x3f03c68c3e1bd25eU,
  0x3d264c61bce1bc6fU, 0x3e2077a43d4c1beeU, 0x3df9ba513de708c2U, 0xbe0ad56f3f18e0dcU,
  0x3ede69873f4ed8b4U, 0xbeafb64e3f1cc321U, 0x3cc76c1b3f3b072cU, 0xbe2d9e963e8b38adU,
  0x3f111dbbbc9e1936U, 0x3eb4c50d3f0abde9U, 0x3f184fa13f0b507cU, 0x3eb1b751bd0edd91U,
  0x3f26d46c3ea30971U, 0x3f22a91a3edd97edU, 0x3e83828f3e80fbb4U, 0x3ea5b6543f241395U,
  0x3d41e5e43f273be2U, 0xbe1eda8a3f1a32afU, 0xbbd23ac83f0dfc0cU, 0x3f06c6533fbbf8b7U,
  0xbdf8f1a2be95043fU, 0x3eaa46913f0e6efaU, 0xbe36446e3d0c0ea2U, 0x3d5f82d83e460f2eU,
  0x3eec6a163d31123aU, 0x3e9f04adbdfb3a9cU, 0x3cbfcfbb3cf9a26aU, 0x3e29a6743ebd6bdcU,
  0x3d6dc0f43f04494fU, 0xbd5408203eefa8bdU, 0xbedc3eaf3f1635a0U, 0xbe81c8c53f1201eeU,
  0xbe2981cf3e9e590dU, 0x3eca32153f268ef7U, 0xbd8d5ba33ea0d579U, 0xbe191de53ed6ab59U,
  0x3e1628b1be1e4e27U, 0xbed97823be2933f9U, 0x3d0246b6bc960ba1U, 0xbe6899a03da8e4e6U,
  0xbe8b7ed03e4111e6U, 0xbee968f23e76c6e1U, 0xbea2e7ba3f03a16dU, 0xbe995ceb3f0c38daU,
  0xbe0bc9753f1c2bf9U, 0xbdf843273e6cbc02U, 0xbf12b4fcbd3f3be1U, 0x3d96bfb03e8b2b53U,
  0x3dc56b053f2162dcU, 0xbd2928e23df629e7U, 0xbd5ea7bd3d1310b9U, 0x3ef8d726be840479U,
  0x3f2590453e6a71fcU, 0x3e9bd566bdfb7c7eU, 0x3e80f80fbe4dca8cU, 0xbe95758cbe3c6cfbU,
  0xbe056f1fbde30634U, 0xbda6b96f3e8eae1bU, 0x3e1b2ea43e84e3c1U, 0xbe286401bed87cc5U,
  0xbf55d0ccbf004fdbU, 0x3e08954a3f256933U, 0x3d2b6e3b3e95105fU, 0xbca50044bf2eac7aU,
  0xbe51853bbb132807U, 0xbe97f88f3ccb60b1U, 0xbe8ceaa0be2eb0a6U, 0xbebb7931be848753U,
  0xbeb7ede8beb7d74eU, 0xbefcdebdbea71801U, 0xbeb97067bea2418cU, 0xbeb0cfdabeb1ab88U,
  0xbf20a42fbeeae696U, 0xbc952169bf04cb9aU, 0xbf8be99fbf862cabU, 0x3da6b679bda59d57U,
  0x3d6eab423e3be1d0U, 0x3dadf534bdd34e6cU, 0xbd8b146dbf2b23beU, 0xbf42f528bfc6d013U,
  0xbf8994f4bff73558U, 0xbf77954fbfc106b1U, 0xbf568ef5bf86af27U, 0xbf047f5abf9a68daU,
  0xbf4da640bfbc7f38U, 0xbf3bda33bfe35ff6U, 0xbf4e7c22bfb4d23dU, 0xbdd117a7beb90a6aU,
  0xbeb56454be282b56U, 0x3e39fb903e5b658dU, 0xbcbc425d3e0b7caaU, 0xbb8bd97c3d37eba5U,
  0x3ad60988bcd8dc23U, 0xbe4192323c719411U, 0xbe884c5bbdae3e2bU, 0xbebbec673ec0a82cU,
  0xbc0badcf3dd945ebU, 0xbeb936b3be331bacU, 0xbf881eed3db405a3U, 0xbe6495fc3da2d220U,
  0xbe988596be8545f9U, 0xbc82c73fbbab85f9U, 0x3d3d2a3abbf1c73eU, 0xbca83d2dbc81a79dU,
  0x3d8e2438bcf250a4U, 0xbd97c7c53ed0024cU, 0x3e904ed23ef3b1d9U, 0x3d286ccd3dba30adU,
  0x3da76532bd521578U, 0xbec5ef50bda17d95U, 0xbe7238643e0ac100U, 0xbecf4d753e86693bU,
  0xbec38d483e4d4015U, 0xbe2933ff3e86b947U, 0xbef9b618bdf3f7a3U, 0xbe309b5cbedd0140U,
  0xbecd4ababe69006fU, 0xbef4b1afbd75a5cbU, 0x3ba9eb433d890dbbU, 0x3e19e9bd3ef153ebU,
  0xbda552d73c82cbf0U, 0xbe2f894c3eb7c751U, 0xbde5c7513d00e425U, 0xbea056ee3e4ccc28U,
  0xbe1e48363d9a3809U, 0xbd43194c3e057f16U, 0xbe4c81db3d7e2f63U, 0xbe8e8cbebdb4c9e3U,
  0xbe155727bea35486U, 0xbe4939bfbeab0236U, 0xbed31b9abd62687dU, 0xbe366f153e901314U,
  0xbe32f418bef35f70U, 0xbdfbe1763e504840U, 0xbdb317533e35ae88U, 0xbef304d3bd973642U,
  0xbf0f150c3e2df38eU, 0xbee8b8a53dbaa725U, 0xbe1242f43d95556bU, 0x3e4772373e27ebe1U,
  0x3cdc00733e20bd8bU, 0x3e42acf43be32d9aU, 0x3d9536f1be069076U, 0x3ca8f8243d37a92dU,
  0xbe846c743e8c3080U, 0xbe6c3c423e74bc19U, 0x3da89ccc3dd59e52U, 0xbd2da1553dfca744U,
  0xbeb86f503e27a862U, 0xbe2e95fe3e225675U, 0xbeb7b3f93e074f6fU, 0xbe8bdd92bdbd7158U,
  0xbe688826bdb06dc3U, 0xbe2a64a03dc09ef3U, 0x3eefd8523e8edbe8U, 0x3ed758273eec2210U,
  0x3eb568d43e1a6c71U, 0x3e4cd6383e199717U, 0x3e100c7b3f0446bdU, 0x3ebd51ca3f026318U,
  0xbc03df2f3d9d020aU, 0x3e406b983f529d7cU, 0xbc4b43af3df31716U, 0x3ceadf473e36bd74U,
  0x3f1b8068be1dc3a5U, 0x3edf0e34bde482f7U, 0x3daa5dcb3e4c1223U, 0x3f021d5e3ca5dac1U,
  0x3e5a70ab3e541b2cU, 0x3e9c2a343eb906fcU, 0x3e8b50f33eca6ba8U, 0x3e9344513eb4acbeU,
  0x3e833dbb3eec1a5dU, 0x3ec5b027bddf08b9U, 0xbd71e8cbbe803c3eU, 0x3e4cde5cbe4eeb8bU,
  0x3e99a8ed3d1aaee4U, 0x3f959ab3bd9849d0U, 0x3f4462a1bdb401a4U, 0x3f080a013e8da979U,
  0x3f2cc3a83ef80bf4U, 0x3f519aac3eb0a0cbU, 0x3dbd65a73db98754U, 0xbec2a6643e5d2828U,
  0xbe3f8395bde7ec23U, 0xbd3d8c4e3d730abeU, 0x3f16cc8abd8b2b99U, 0xba136f1cbf8535f2U,
  0x3d357a31be126328U, 0x3e5b5288be824610U, 0x3eef2f25bafe0340U, 0x3f361313be0aa102U,
  0x3f4203e53db51a83U, 0x3ed8c70d3f2b6ef9U, 0x3f0f6b083f17cf77U, 0x3e8ca9e33d35250dU,
  0xbecc00d2bdd4ddc1U, 0xbdb12a983e0a4756U, 0xbe346e39bdfadec7U, 0x3d4b7491be8472f5U,
  0x3f1c16f5bddcdfb8U, 0x3f4de2b8bf2cf2ddU, 0x3dfa86193d4c6215U, 0x3eb795ae3dabd9e8U,
  0x3ecb8a733e71ea47U, 0xbe31afc33e0bfbf2U, 0x3e027f8dbdbfe31fU, 0xbe8839993e504a0cU,
  0xbeccc428be1c267eU, 0xbeeeee1ebebee6d4U, 0xbeafcf49bc0e7ad7U, 0x3e8a33483e64ea6bU,
  0x3ef8a076be03b3aaU, 0x3f482d67bed7d3b5U, 0x3f7f16fbbd161889U, 0xbe08eab7bf5b6aedU,
  0x3e6f8d4b3eed97f9U, 0xbe9a6f453edb8801U, 0x3ea1520a3f0a9c0bU, 0x3cbb1bd73da9611dU,
  0x3dd4a1f9bca378e8U, 0x3d271df0be04fd5bU, 0xbe76bae8beda2ac6U, 0xbf2d9b27be7b09beU,
  0xbd821d863dd5ee1cU, 0x3efa63f63d821344U, 0x3f3dbb73be3c0b31U, 0x3f7352e43e2aa878U,
  0x3f821ff7bdbd555eU, 0xbf338bc1bf757a2dU, 0x3e725917bd8f8464U, 0x3e8f35c43ef9fce0U,
  0x3cabe2c33ea23b97U, 0x3f136fec3dbcb71eU, 0x3e6d33eebd7ade6eU, 0x3dd980a63dbaf32fU,
  0xbe4674e2bdd06f25U, 0xbe2a524cbc13bfd8U, 0xbca9f267bde644acU, 0x3e9606f3be822236U,
  0x3eb46ce1bed8553cU, 0x3f23074dbe53b79bU, 0x3e839c84bf11f177U, 0xbf81c57bbf88f85bU,
  0xbdcd2f69bdfd34f1U, 0x3e306843bdea653dU, 0xbe1ab371bdc68352U, 0xbe7f49e63e0f7e0cU,
  0xbd3bf9873d7d0f5eU, 0xbec1510f3e2e6aecU, 0xbef26b613ebe23f3U, 0xbed04e123df0b720U,
  0xbe52a886be47e369U, 0xbeaf218dbef580f5U, 0xbd8f63dfbec28024U, 0x3e9ea1bdbf0e8d48U,
  0xbd860c39bf513054U, 0xbf1f37dfbf26b0a5U, 0xbd36c9453e047845U, 0x3d3b00583e570b98U,
  0xbdeb174abbd5c53dU, 0xbf4d224a3e556199U, 0xbf4ebbe33ed9a384U, 0xbf119e6d3ef4c530U,
  0xbdf1d90c3ef31759U, 0xbe0eb3593e4b73d6U, 0xbe7e686539ce8e70U, 0xbeb725f2bea0f2a0U,
  0xbe7e451cbef94d84U, 0x3de69a4fbe9e7b11U, 0xbf0c22e4beb21c10U, 0xbe4953a6be750f46U,
  0x3da5ed32bd012200U, 0xbbdb8b3d3da643fcU, 0xbde1cc283f037f15U, 0xbcb9b5073f0e6601U,
  0xbdb1ff063f1d62baU, 0x3e8ee0333ef7807dU, 0x3e07034dbbda3d6eU, 0xbe20af28beb20201U,
  0xbe91f98ebf389306U, 0xbeebd2e7beea64fbU, 0xbedcb91ebed79a50U, 0xbf2ba043bed4f030U,
  0xbecab1e1bee08b4aU, 0x3e092c01bd22bca4U, 0x3dce9a82383881b8U, 0x3d7ff5423d6ec43dU,
  0x3e45b1de3e3e6e1cU, 0xbd0f8ffe3dc516a4U, 0xbe162de63ca7d651U, 0xbe94b60ebe3a3821U,
  0xbdf000663e2d4362U, 0xbddd622a3e7fe127U, 0xbcaf0db53d0af8aaU, 0xbded24bbbe87b461U,
  0xbdcaa640be2cf921U, 0xbe3ca3b63dafe7d7U, 0xbd2de5c2bd9e5855U, 0x3df862003e559508U,
  0x3bb944be3e16a418U, 0x3d9c4b813e173402U, 0xbe03dfc4be931dfcU, 0xbed5d0d2bf3264baU,
  0xbec8929ebfa205b5U, 0xbead8174bf645b57U, 0xbf05215abef5a760U, 0xbeade308bf069a69U,
  0xbe80598bbf0b20e1U, 0xbec22036bef0f632U, 0xbef343e6bf0ce216U, 0xbecca6f3befa22fbU,
  0xbef562cabf22c7edU, 0x3db38e77bd0be463U, 0x3e653bc53c3af6a5U, 0xbd9d29953d302ad6U,
  0xbce728643dfe788fU, 0xbe8a1de9bef8fe39U, 0xbf3f71c0bf1300f1U, 0xbf837bfbbe08692eU,
  0xbed98b5e3e7d60ddU, 0xbe9a84b93cf57304U, 0xbe9dc876bec9734eU, 0xbf328c8abf0081bbU,
  0xbf254a44be95718bU, 0xbe3e7450beb74d6bU, 0xbf0d73a9bf0ded78U, 0x3d89bb16beacafc0U,
  0x3e72d9a93ece5664U, 0x3e3b64d1be1dff08U, 0x3e1c5980bdff4e50U, 0x3d7da01239c0de40U,
  0xbe3408f53e083e39U, 0xbed9867d3effc934U, 0xbf0c10253f0748b9U, 0xbec9c8783f0e396bU,
  0xbeef44573eafa857U, 0xbeba0c913ea32b86U, 0xbea9dc4f3d9f24b4U, 0xbecc9c0bbd232dc7U,
  0xbe59dd0ebe4217ceU, 0xbdbb786abe152155U, 0x3e6217863eb06821U, 0x3e4240db3dd8f638U,
  0xbf3ae39f3e24538aU, 0xbe92ea673ec8c569U, 0xbbd885d83ee0ef4fU, 0x3c81b43c3f18b397U,
  0xbeaa50513f13855dU, 0xbf0993be3f0c889eU, 0xbeac00af3f33e94dU, 0xbe14ad273ea29bc2U,
  0x3de5658fbc8c19f5U, 0xbd8a8276bdbc0a4bU, 0x3c5be442be7dc3f5U, 0xbe85b5563de9a49aU,
  0x3dc59d583ebf584cU, 0xbc2f99393e732912U, 0xbf2f2e363e926b70U, 0x3e686da83ebeb78aU,
  0x3d2cbd353edfe9e4U, 0xbe10ee693e9bf1d4U, 0xbe861d6b3effc211U, 0xbd84ce033f2d715fU,
  0x3ed16ead3ea5c3ceU, 0xbd8b4d3b3dde8075U, 0x3dd7a4533e32c17aU, 0x3edfb6103d7d8ac5U,
  0x3f02d6173b92a24fU, 0x3d19bbcc3e7773f2U, 0x3d8f09743ea13210U, 0xbe1415103f2cd0bcU,
  0xbda9b9513f07526fU, 0xbe9457d63edd270fU, 0xbd90f3ab3ef0594fU, 0x3d96a3f33e3a1f25U,
  0xbc7770bd3ee93d27U, 0x3eb19cdc3ec3cf2dU, 0x3f00b2923e416813U, 0x3e1ea76c3e0ded6aU,
  0xbc8ec52f3e80f400U, 0x3df35e8e3d4a7f96U, 0x3d3e1b243eb16c69U, 0xbdc0dfdc3f22790aU,
  0x3dfcf4883e37d4adU, 0xbccf69c93d9346a6U, 0xbe975e1c3e0f79cbU, 0xbf13397d3cbd2a52U,
  0xbef92f963cc3f245U, 0xbe378cbdbd5ceacdU, 0xbe1953b4bdc704edU, 0x3e203c473d8f0ac9U,
  0x3ea3ef793e65d6dbU, 0x3d3b82fd3e2fd520U, 0xbd8a78813e95eee1U, 0xbe6151463b7009a4U,
  0xbddaf4423cc6d15dU, 0xbf04ddfe3eae12a7U, 0x3e15144bbe31f8c6U, 0xbe89ffbdbdbd77faU,
  0xbeec4147beb34228U, 0x3cb3c5b0be3f23b8U, 0x3e6149b93c6101deU, 0x3e0b6cadbd834f1bU,
  0xbea92d5b3dc311f1U, 0xbe3cfc63ba14e594U, 0xbe1958493c9d4cbcU, 0x3e1b0f5c3de86e6dU,
  0xbbb218753e163daaU, 0xbe2435473d7dbb08U, 0x3adb9fcfbe8aaaa6U, 0xbf46d2c5bf53fedcU,
  0x3da509bf3e15bafbU, 0xbe53b72bbee73b68U, 0xbf0284fcbeeb1ffdU, 0xbe14febfbea9aaf6U,
  0x3e54c491bdf90f14U, 0x3e060ac9bd80e04dU, 0x3e7c5ae23e9a3a16U, 0x3eb038fe3cd4f331U,
  0x3cfb0728bdfde275U, 0x3e2aa7f0bdf2b944U, 0xbd3e6ea6bcc07e0bU, 0x3e60cabfbca49014U,
  0xbd82ae40be733a4dU, 0x3bc0392a3ea58594U, 0x3db5cc70beadef6dU, 0xbe5cb21abf447b75U,
  0xbeb4e3f4becd50b3U, 0x3ec015c0be901e15U, 0x3da299cfbe35a866U, 0x3eed4d57beb1507cU,
  0x3e942e81be405e23U, 0x3e766ed8be4b9faaU, 0x3de74f04beffdfb5U, 0x3e03c3c9beac68acU,
  0x3ec415663c9ab403U, 0xbe2173c5bdc38e54U, 0xbdad0f223c21ad36U, 0x3d4846d13eb4c401U,
  0x3dbf51e0be0d5176U, 0xbcc3f647bf201038U, 0xbf1b6d7c3de1b963U, 0x3e4caf2e3d69654eU,
  0x3e88562ebe9d54bfU, 0x3f40d12fbea9c7d2U, 0x3eeff32dbecf09f7U, 0x3ed6831ebdd9cd07U,
  0x3edc70adbe34c614U, 0x3cefece4be8b3343U, 0x3dcc8d31be91f742U, 0x3b48cb043d32a6f2U,
  0xbeb099633d449f2cU, 0xbdc8ec40bc858efaU, 0x3d4952f4bcc2e7b8U, 0x3dbaa8193d2cbbbfU,
  0x3d5d9c0b3ce7f11bU, 0x3fa291f53c858e8bU, 0x3f1be682be3239aeU, 0x3f0f104abe8c20d8U,
  0x3f6a3979beb72375U, 0x3f4e3cf2be2187beU, 0x3f4b920abef82964U, 0x3e6966a3bea8568cU,
  0x3ea45605be3a78d9U, 0x3e53030fbe3507a3U, 0xbf0585b3bf17086dU, 0xbe02196abeb06bb1U,
  0x3e045d4a3e2c90d3U, 0x3e138d983f0897c4U, 0x3ed82eb03edb9a80U, 0x3f0de7983ebb3f74U,
  0x3e9d0c533ea54f94U, 0x3ea2bb0ebe2670ccU, 0x3e2cf814be551ec5U, 0x3ee6eb64be4ee7ddU,
  0x3eb14f35bdb400b2U, 0x3eac0b4b3cf56082U, 0xbde7fdac3e5364d2U, 0x3efb8e513e5a37e2U,
  0xbebeb502bf5244faU, 0x3e4ccf2fbd0d71adU, 0xbd555e7fbcb7b276U, 0xbd897984be10c4e8U,
  0x3d80bce4be0ed98aU, 0x3cb69f313dab5e4eU, 0x3cb5f88a3af30d27U, 0x3858f393bd9267beU,
  0x3e1b07cc3e98ce47U, 0x3e939bd93ef40ee8U, 0x3e6c160a3f1ccdb9U, 0xbdbfebd63c010ae6U,
  0x3d58a13d3e5b6539U, 0xbde9d040bd5095faU, 0x3e0c84f9bd85c5b1U, 0xbdacc350bbbf1eb4U,
  0x3c1128c93d6e1ad6U, 0xbdaae1e4bd50cbeaU, 0xbd4690103d87615bU, 0xbdb6b852bb92a728U,
  0x3ce0e8cebcb0a593U, 0x3c67c656bee89d06U, 0xbe4d1c05bf82da07U, 0xbfacf6e6bf93e997U,
  0xbfb5b93dbf9841fbU, 0xbfa4cc58bf6fadcfU, 0xbf1a59febf34507aU, 0xbf391f95bf0206d6U,
  0xbe852a5dbecc4f59U, 0xbe2daa58bd55ae7fU, 0xbcce1a77be02ba9cU, 0x3e46cadc3e8291a5U,
  0x3e183e843eb60150U, 0x3eb3e689be923dd9U, 0x3e8a83a5bf189c89U, 0xbd633589bf3ca8ecU,
  0x3f928b8abf056227U, 0x3e5710afbeec35adU, 0x3e6ff0cebf09d7b2U, 0x3d8ce6eebf06f351U,
  0xbd8df2f4be192c6fU, 0xbe02319ebe5fef77U, 0xbe9f3bfcbe459711U, 0xbec040a3be118439U,
  0x3bad4c33bf409dd2U, 0x3ceebd7a3f4e50acU, 0x3d39c23d3e389b6bU, 0xbe2f6dfdbe9f8ba5U,
  0xbf5dc173bf711b10U, 0xbeddb3acbf1cfd51U, 0x3f1cac51bf28621eU, 0x3f33876abf64e8a3U,
  0x3f004c6bbf4dc710U, 0x3ddd9584becfe83cU, 0xbdfafa733b90fcffU, 0x3dc905acbe28cfaeU,
  0x3d015baabd4605f4U, 0xbece6a1fbea019eaU, 0xbcc22763bf3dc755U, 0x3dc592873e11b1edU,
  0x3f621ca2be2b6fd0U, 0x3e4b0028be68517bU, 0xbf810ce5bef151b2U, 0xbbd315f8bf5c9a26U,
  0xbe629b98bf049ca6U, 0x3f20c512bce0464fU, 0x3e5ee2ab3e62e3bdU, 0x3eb01a9d3ee6125dU,
  0x3e9dc0a23f271c0cU, 0xbd2fa8e63ee592f3U, 0x3c967a193f0920daU, 0x3e89ee253eab4fc4U,
  0x3c9f8095bd13ca3aU, 0xbe3bc8223da6cb31U, 0x3f43497bbe89ce3fU, 0x3de31e2dbf078ffdU,
  0xbd9108c8bf346641U, 0xbee2004cbf38f45cU, 0xbe29b953be022fd5U, 0x3ea8423c3f4681a8U,
  0x3f211cdb3efa36a1U, 0x3e868e4b3edc06eeU, 0x3e2451063f574a41U, 0xbee76c9a3f5eee89U,
  0x3f0afcad3f90912cU, 0x3f4e90e83f89f4f4U, 0x3d5a9707be809095U, 0xbe6cbd0dbeddd515U,
  0x3f1319fcbe9d51ddU, 0xbe34fb71be58c941U, 0x3d927c263d9ce633U, 0x3d5fd473be955162U,
  0xbe353f2a3eb48cb2U, 0x3eefae663ee41bc3U, 0x3e6ff49dbe13d1d1U, 0x3eb17ff3bf1e3ecaU,
  0xbf345c61beb3035bU, 0xbeb8954b3f14f890U, 0xbe85ba053f4e1756U, 0x3f90802d3f8a06b4U,
  0x3cb6caecbd47c455U, 0x3d718be3bea265aaU, 0xbe1f5ebe3d270002U, 0x3e414ac53e51fe08U,
  0x3f29c2f83c59ccfcU, 0x3f31e86ebe7caa31U, 0xbe8b7d7c3ef6aa74U, 0x3e1fc46b3e0a99b8U,
  0x3e1f3329be49b2edU, 0x3ebca77ebf5a6906U, 0x3d4183b7bf746bb9U, 0x3de1f190bef7aedfU,
  0xbf30211dbf4e2f76U, 0xbd04004e3ea3e272U, 0x3d636db5becddc4eU, 0xbddc2a603e0cabc7U,
  0xbeaaf3313f2af851U, 0xbe6e15ab3e5ea877U, 0xbe9be112be896c96U, 0x3ebfd740bd55c1bcU,
  0x3f0689273de83d1aU, 0x3d8413793dec6263U, 0x3dacbde2be7ffffdU, 0x3de1d8b7bec21e30U,
  0x3e842c53bf048f22U, 0xbe4a3fcebeb355a7U, 0xbeb7f42abeec7990U, 0x3f0611093d5001b0U,
  0xbc99e0d3bea96d49U, 0xbd04517ebef39c5fU, 0xbe7dd8c6be74a06fU, 0xbf4744bd3e36bcadU,
  0xbf4216dc3df619feU, 0xbe9ded5ebdb93a68U, 0x3db3826e3ea7ead0U, 0x3dc88803be21384cU,
  0xbd3ff8f0bed7bd8cU, 0x3dc1c280bf12a170U, 0x3e77380fbf1893aeU, 0xbec3cfd0bf2495b3U,
  0x3eacc079bd8865c4U, 0x3f0ace253f00c7e9U, 0xbe2cc4f7be43c84aU, 0xbe0db3fbbfccfcb9U,
  0xbf0fa845bf31ddaeU, 0xbeb12a1fbe375a6bU, 0xbdb8e12abd87f7acU, 0xbe4e8508bbe0adb9U,
  0xbd80ff443dc16c52U, 0xbe3f5d9dbe639095U, 0xbdf61f09bec46845U, 0x3b4ef9cdbe88f02cU,
  0x3f48d0acbe9f30b2U, 0xbeb78c11be4317e3U, 0x3edb6bf13c3d282cU, 0x3e9f72803ef28c6bU,
  0x3d929c83bdb0015dU, 0xbd437eedbe875c16U, 0xbe957235bdb14089U, 0x3f2ee491bd2ab3b4U,
  0x3edcdb9e3e7911c4U, 0x3f139a39bd207780U, 0x3e8d72f9bda75e5bU, 0x3ece78ecbd7e6b04U,
  0x3d9451a9bcea39c2U, 0x3dd328b1be1ea543U, 0x3d964216bd61dc1cU, 0xbf0d0e413e18ed7cU,
  0x3e6ec9753ef44ba2U, 0x3e31d4e03e81ab09U, 0x3d3ffdc1bd453fdaU, 0xbe41ef20befcdf51U,
  0xbe5ec564beb67ae0U, 0x3ee31334be1a3597U, 0x3e99e34b3e262f91U, 0x3f48e10a3ec50e02U,
  0x3e7404e83e8cfd25U, 0x3d8a24b93ed04443U, 0x3e88d8cc3dc8fc73U, 0x3e31baed3db0311eU,
  0x3d19bc773e1c269eU, 0x3cc3abaf3eb3a190U, 0x3d7b45f5bd8665c8U, 0x3e4c8f5a3de37faaU,
  0x3db6e6f0bc894d8cU, 0xbca91300bb69abfeU, 0xbe08715dbf26af53U, 0xbebb7d60bf803fecU,
  0xbb2e256fbf690447U, 0xbf25f99abf43e584U, 0xbf26a93fbf20777aU, 0xbec71674be63635cU,
  0xbee17065bc4fe32fU, 0x3e270bc6bde8c2fcU, 0xbf2a1ef8bf4f1516U, 0x3e40eaa7bdcf8420U,
  0xbe0b6732beab1411U, 0xba825c9d3d6a8cfdU, 0xbd4c21dc3d2d0a29U, 0x3d3b83d43df29af0U,
  0xbdcc2bab3d42ea24U, 0x3df6eb85bd9e5782U, 0xbc7edaafbd95589eU, 0xbc1fa5ba3cd58966U,
  0x3c72d972bdaaa1ddU, 0x3dd6634bbf0e69aaU, 0xbe83dd99bf56efe1U, 0x3e2ae5173c9ec33cU,
  0xbd9d4af83e6affe1U, 0x3e15c4b7bd484435U, 0xbd6edbd5bd52966aU, 0x3d3eabf93d9a9bbaU,
  0x3d280d91bd5d7a35U, 0x3dda7c113d77aeafU, 0x3de3f58b3e45ef10U, 0x3d6b2c5ebeb599e7U,
  0x3e2b8456be667d13U, 0x3d5e7cc7be7e3c24U, 0x3d6d5cf1bee43d64U, 0x3f6f79f6bce78601U,
  0x3f17a6bf3ec852bdU, 0x3f37c6003f37354cU, 0x3f4137433f3d571cU, 0x3ebea42d3ef6a42aU,
  0xbebba908be013f13U, 0xbf1e4d20bef2a620U, 0x3c74af9bbbbdaf50U, 0x3e3215493ec6b70fU,
  0x3e0debedbd1ffca4U, 0x3ec39043be90a9e1U, 0x3f5125b9be47cd60U, 0x3f03853cbe410b7dU,
  0x3ebb9b89bd87cff8U, 0x3e85131dbd301501U, 0x3ed65cf23db994c5U, 0x3f1731ec3e79ed62U,
  0x3efa955d3f06c678U, 0xbdda501d3f6c0df7U, 0x3e2102aa3f3f5343U, 0xbd25d43b3ea4a11cU,
  0xbe0950c7be617ebbU, 0xbee216033e471c8fU, 0x3e714988be9f4e2aU, 0x3ed8e116bd84db9eU,
  0x3ee995e03da5d4cfU, 0x3e7a4d0b3c901ff5U, 0x3e84c231bdd4eea1U, 0x3e8e4cd1bdee670eU,
  0x3e94f6febd88cb5fU, 0x3d33a6163e43951bU, 0xbe04cf573e8cd24aU, 0xbf028abd3df5fa3bU,
  0x3e3070623f3481d8U, 0x3f57cd453f47cf5aU, 0xbe00f831bcd7190aU, 0xbf4c77723e19bdf4U,
  0x3f845cc9bdb4c656U, 0x3f6abc24bd3a3878U, 0x3f813989be7c656aU, 0x3f15c45cbe1d9756U,
  0x3e8fb24fbe84117fU, 0x3e57a0ddbe09b026U, 0xbe99a800bd161bedU, 0xbed835993de52babU,
  0xbf2b0f323e3d2e7fU, 0xbec20e203dab4ca5U, 0xbea7a9663e7287a2U, 0x3f1c52683f432d1fU,
  0xbe14d341bf01a38bU, 0x3dd885083dc5cb5fU, 0x3f97de94bed4ab59U, 0x3f5d4824bd62246dU,
  0x3f66a7a7be26ee87U, 0x3f3e9b61be441d2cU, 0x3f032c78bcb86053U, 0x3e0df51ebdb7b000U,
  0xbeaafc0dbe35b64eU, 0xbf5d9861bddb19e4U, 0xbf7e814abdacef28U, 0xbf5b2c60be64328aU,
  0xbefd311abaa093f5U, 0xbd33a3d43ebccb0bU, 0x3d13d601bea91c24U, 0x3e88df5abee49741U,
  0x3ed679afbe6c9277U, 0x3ed50344be624627U, 0x3f1058aabd452af8U, 0x3ee6c0f23e55d65aU,
  0x3ea7fd3b3f6663eeU, 0x3d17d9c03f1a6bf7U, 0xbe096a093ec884f3U, 0xbecdeb333db50cc1U,
  0xbf1a5e9ebdff4fafU, 0xbf2e4723be5e5d39U, 0xbec8eec3be8e04d1U, 0xbeb94993bf242828U,
  0xbc8f622ebe51cda5U, 0x3d865aa23ce06ceaU, 0xbe0aa7823ba06d99U, 0xbdde8d373e524709U,
  0xbe599f5d3e159104U, 0x3e0ac5063f12b26cU, 0x3d8a2e053f674bf8U, 0xbdecb2853f5749ffU,
  0x3d1c64333f03cb81U, 0xbdd739c73e205f6dU, 0xbdea5dc83d387450U, 0xbe167380beaacabbU,
  0xbccddaadbeeec2e5U, 0xbdd5e20bbf616d85U, 0x3e704790bd6cbeb9U, 0x3f041e64bcfc91adU,
  0xbeb8e4043bd87a69U, 0xbf0f4884bdc0ffe9U, 0xbf0bc22bbea62ac3U, 0xbf4d8e3a3e9a8e6cU,
  0xbeeb70bd3f2018e6U, 0x3db0669e3f1b08f2U, 0x3e67525e3e8e8a17U, 0x3e6bd1023dae7d08U,
  0x3e416223be4ba6e3U, 0x3e0fb7cdbda44bb5U, 0x3e157446bebb280bU, 0x3e293487bf3865a1U,
  0x3e8856a43ecd5107U, 0xbe98a1443eed7677U, 0x3ddd0ba23e992755U, 0xbeb3476ebd6c5b38U,
  0xbed3ac3bbd46d368U, 0xbf2de566be4c9d9aU, 0xbf333171be223311U, 0xbc75e2ab3db4fcedU,
  0x3e8431783e1aa754U, 0x3e9f0e7c3d60fb7dU, 0x3ef19c2a3bf3a7e3U, 0x3e9ff72abd9b61c5U,
  0x3e8ee6eebd13bd39U, 0xbda777fdbf2a81feU, 0x3d9119593e0d90cbU, 0x3e4ec1d23e90b3dbU,
  0xbe9ef2b13ecafebeU, 0xbf1465953d39a428U, 0xbf2f6a213d8ea406U, 0xbe2bbb8a3d3c6d5dU,
  0xbea3e1a6bd92ec54U, 0xbd2d02b23e3886c5U, 0x3eed8fc53da0e61fU, 0x3eeb40493d8b3522U,
  0x3ebd7e023db8c4c5U, 0x3f02a339bd730ca6U, 0x3f2108bb3ba111bcU, 0x3e6eafffbde44e02U,
  0xbcbe53fcbf21dcf0U, 0x3e434bd33f0e4e1bU, 0xbe092559bdde3117U, 0xbe49275abe6aa994U,
  0xbe9a22bdbe009845U, 0xbe1a4f743d620cf2U, 0x3dbe3b253d169496U, 0x3e84ab5f3d438503U,
  0x3ec875323de85613U, 0x3da2991dbd041082U, 0x3eec5ddfbda8743bU, 0x3e114e3fbbd65d0fU,
  0x3e5219ebbee23225U, 0x3d101406be499821U, 0xbdcf3c883e82a700U, 0x3dd6450f3ed5cd9bU,
  0x3de7ace03d8d89d9U, 0x3c01d64e3e720827U, 0x3ed2c7473ef3d38cU, 0x3f5896183e936341U,
  0x3ec8ce843ded840aU, 0x3e1bdb753e460335U, 0x3e2ec3e03e34fe91U, 0x3d897bf93e6cec2aU,
  0x3f0ed2743cb878b6U, 0x3e2a12253dfa34f2U, 0x3f3d3bfd3e00f261U, 0xbd43a2f33e1566d6U,
  0xbd2d8414bdc887f5U, 0x3bad15c43d51600cU, 0x3ca5ec55be7d6593U, 0xbef656d5be9ca68eU,
  0x3edd51613efdf118U, 0x3ec3efe13f389020U, 0xbbbea16a3ed7a943U, 0xbe34ae203eadab85U,
  0xbe0b20d63eace3dfU, 0xbddb2ea53e0c8447U, 0xbe9530973d9a61d4U, 0xbec792ef3e9d4057U,
  0x3f237a2e3fa7f2a1U, 0x3cdcbc1a3de98fd0U, 0x3de9556ebdc82f4bU, 0xbcc5b7f8bd61b1c6U,
  0xbd94247ebdabf6eaU, 0xbdc76f3cbdf51f0fU, 0xbcf5afbc3d106b68U, 0xbbf2acc03dc6e50cU,
  0x3db5e0243d23db44U, 0xbd426a22bdc15504U, 0xbdc768afbd12e98cU, 0xbd3bd072bc6ca46cU,
  0xbdf3bd333d24cc9cU, 0xbd4323f83a357280U, 0xbccb56e0bd23fa76U, 0xbcfb417cbdf0c0edU,
  0xbd8af69cbdd8d999U, 0xbdc231aa3ded0bfaU, 0x3c0b73b03da48ed4U, 0x3cbc60a0bd539b5cU,
  0x3cc689983d21044cU, 0x3d32d9803b132f60U, 0xbd898382bdf56b4dU, 0x3c73669a3c3e1e94U,
  0xbce2c994bc210a0dU, 0xbe250efabda2eb83U, 0xbdb36e983c4fe471U, 0x3de2e6d43a88c940U,
  0xbdbd37a7bb8f2e70U, 0x3d73fed03da4c858U, 0x3dd3c0f83d8f4e1aU, 0xbd3eb0c0bdced5e4U,
  0x3ce64b30bd72fa53U, 0x3dac61763b1a51a0U, 0x3d6edfb0bd84f506U, 0xbddc3072bdb9dc6dU,
  0xbe3578943d259178U, 0xbddd8612bd97a107U, 0x3c81a4463d78ecf1U, 0xbd58513bbe2aa244U,
  0xbc9aefefbda3ec05U, 0x3d4344fcbe22a509U, 0xbd8a20703c9b3eaaU, 0x3da914ba3da81e2cU,
  0xbdd6091a3ce49648U, 0x3d750788bdbe1b14U, 0xbd4c89623c910f78U, 0x3dcc9f443d387250U,
  0x3d80d9383d261cbcU, 0xbd024fea3d76361dU, 0xbb3d1e80bcf78157U, 0xbd6949b5bd845033U,
  0xbe34baaabe26c7ceU, 0x3dab8980bdccaddeU, 0xbe1247dd3c7f98a0U, 0xbdd1715ebdb76657U,
  0xbd5e489ebdd5bbe4U, 0xbda2ec943dcc0104U, 0x3dd627023de39f98U, 0xbdd79db6bcfaea68U,
  0x3d8d516abdcb63caU, 0xbcb0c1c03de621a6U, 0xbd01ca07bde098b1U, 0xbe34f937bd5c69f4U,
  0xbdbd2aacbe12aaa4U, 0xbd4fa7ccbd579bc3U, 0x3bbe6ce0bd544f4aU, 0xbe077c46bc2b67e8U,
  0xbc5167c8bd0bb312U, 0xbdc234213bb43a2bU, 0xbd30d444bdd17ab2U, 0xbc9afe28bb9f1880U,
  0xbc89e9e83daea688U, 0xbdd6db3a3ddaf09eU, 0xbc8307783d1e4ee8U, 0xbd8d5fbabdbbfab4U,
  0xbe1b75b2bdec7c86U, 0x3d2f5fc1bd6d9724U, 0xbd32357ebde85df9U, 0xbe34d915be16582bU,
  0xbbbc7393bdf7db47U, 0xbe03d8b0bc79afa1U, 0xbdaf7079be2a8c93U, 0x3ca1dde73d2fe5e5U,
  0x3d4edbe33d4e6fc8U, 0xbb8e5940bcedf500U, 0xbd9da885bd3e2caaU, 0xbc9724ccbcd04610U,
  0xbd834b293d1f2068U, 0x3d7250a4bdaf779cU, 0x3cdff56a3c3603c8U, 0xbe37b79abd0ed3c7U,
  0x3ca803e63d5aca39U, 0xbde5d50bbdc3b316U, 0xbe37eaf6bdc1a217U, 0xbdccff9f3d72e345U,
  0xbd0a00b93ca9edfdU, 0xbd1ee619bdf08148U, 0x3b48e6a0bda07af1U, 0xbdeb9ecabbc568b0U,
  0x3ca832303dc2fc3eU, 0x3d71f1a8bde1794fU, 0xbdf41a63bdfda9d7U, 0xbc7318d0be0d6a74U,
  0xbda3a7dfbdbc2a72U, 0xbd6576f4bce0623eU, 0x3d35cddb3d64a8b5U, 0xbd94eb66bdb981eaU,
  0xbe27f69cbce4a0c3U, 0x3d572d64bdc9d448U, 0xbe26662ebc72c0a7U, 0xbdbd5cf63bc62861U,
  0x3d01b260bdc12482U, 0x3d20d8643de3f2a6U, 0xbc84d950bd796eb8U, 0xbdb99ca0bd2a62caU,
  0x3c091fc0bdbddf9aU, 0x3d7e1fcdbcb02743U, 0xbde80517bc224df4U, 0x3ce89f26bdde4569U,
  0xbd9de056bd9402ccU, 0xbdb031abbd71bf90U, 0xbdb16de43cec07cbU, 0xbcf79aa5bd97230cU,
  0xbe020da3bd34667aU, 0x3d5282f5bd7bf630U, 0xbdbbb538bdef583bU, 0xbdda23633c9f0b40U,
  0xbd8f66bc3cf7c008U, 0xbbf44570bd8baf0bU, 0xbd93be62bdd82f0bU, 0xbbc09e68be1c51adU,
  0xbe0c7cbfbcdba649U, 0xbdff57b9bd858198U, 0x3d078363bdc40714U, 0x3d3ea5c8bde790a8U,
  0x3d50b5b6bd53d61aU, 0xbdc70fd7bde5dfcbU, 0xbcb2a578bdf13b4cU, 0xbe38a7a33c22f36cU,
  0xbdaf48b6bd0536aaU, 0xbd195784bd62804cU, 0x3bd0f3c03d4f2234U, 0xbd6f25d03d7dd2a0U,
  0xbce70630bca7a578U, 0xbd8baddc3def7f90U, 0xbde9e568bdd6356eU, 0xbdc48460be127fc2U,
  0xbe2646563d0454fbU, 0xbe050977bdf05e05U, 0x3d0936b1bd8a289aU, 0xbe0b7c08be3527f1U,
  0x3d02e9b1bdbb18a1U, 0xbdd690193d0bfd6dU, 0xbd762e56bc974e54U, 0x3dae2e96bd991af0U,
  0x3df32a06bdd809eaU, 0x3df02eb03b988aa0U, 0x3dce7bea3dd36f82U, 0xbd9c9beabd97e90eU,
  0xbc2e8808bdcea97eU, 0xbdd06360be0502bbU, 0xbd666907bd16b955U, 0xbd9175f1bdca4ac3U,
  0xbdfa1ddfbe2bcdaaU, 0x3d67f696bde815a6U, 0xbe30843abe2933b8U, 0xbdb773383d06818cU,
  0x3da5fc64bdd7dfa7U, 0xbd65421abdab619eU, 0x3dd33ada3d85b1faU, 0x3da73a1e3de002e2U,
  0x3d079f6c3ba95320U, 0xbcf0c8bcbd429fb2U, 0x3d8d98ecbd48adfcU, 0x3c9982b83d69f804U,
  0xbd861198bd01c711U, 0xbda9e094bd6a10a1U, 0xbd021a5ebd30d93bU, 0x3d5f7fe03d19e77cU,
  0xbdadfcf4398bcb00U, 0xbdcb3d1bbdbfc13aU, 0x3dc1eb82bd5575bcU, 0x3d715768bdce54cdU,
  0xbcfa88103d4ca8b4U, 0x3d7fa8343deaa1a2U, 0xbb83e590bdb44dfcU, 0xbddbf2efbd91b4dcU,
  0x3da06cba3dd417ecU, 0x3d6d140c3de35168U, 0xbdbd554a3d969c2cU, 0xbd3e6f3c39109c00U,
  0xbd9e20263d581f70U, 0xbd3dc7cc3da9e9c8U, 0x3de9e35cbcbc85ecU, 0x3a84db40bd7713f5U,
  0xbc854ec4bddabc94U, 0xbd4e4de4bd5804a4U, 0xbd9654cabdbbb7bdU, 0xbe1524a0bd6455efU,
  0x3c20eb91be062b4fU, 0x3d2b2328bd82a0abU, 0x3d3100df3d220339U, 0x3e3fd479be4d18d3U,
  0xbca05bc1bef6a672U, 0xbdfc8ee7bea3029bU, 0x3e2d1b5abe109316U, 0x3d9707c5be2b8d86U,
  0x3c277262be36fa2fU, 0xbd5d7d29bc7a3320U, 0xbc8fc2fdbe354882U, 0xbe6fe8e8be29c766U,
  0xbdb8fd54bd8fcec2U, 0xbddf9c07befa27ffU, 0xbe9075f9bf2358ffU, 0xbdfd2dc4be4561bcU,
  0xbeb717893e13af6cU, 0x3eacbc91bbb5549cU, 0x3ee2483c3d61a52aU, 0xbf093894bd6e61d0U,
  0xbef34ad8bae1284cU, 0xbdd14d02bdb2039bU, 0xbf206dee3c25c39fU, 0x3f9787183f25a4abU,
  0x3f635e783ee49159U, 0x3eadff693deb7f4dU, 0xbe4acb17be009206U, 0xbe20297fbf0822d1U,
  0xbdbbf96abed9fe3cU, 0xbec88b923dd7e216U, 0xbe37a4273eaf62e7U, 0xbf0c7a4d3e82acd1U,
  0xbe986e8c3e893f2dU, 0xbe890bc33e072c3bU, 0xbecab17f3d33f1b6U, 0xbe6c462f3dcb4146U,
  0xbead47c53e6c8eedU, 0xbd165c86bd98accfU, 0x3e3d6df33e8d9c31U, 0x3edbab913eee956cU,
  0xbdf5fea43e8c8a8eU, 0x3dbf0374befca737U, 0xbd487e60bdf3d801U, 0xbf5eca843e9b1b0eU,
  0x3ee8929e3e01a837U, 0x3ba9c4413e275f98U, 0x3e3283773e41f386U, 0xbd4e0e3a3eb9bd6fU,
  0xbcc4fdc73e87ca4aU, 0x3d83a3343d00852bU, 0xbe732707bdb512e7U, 0xbeaed0a6bea4c65bU,
  0xbf38ee1ebe5cff0cU, 0x3e5231e33ef4819dU, 0xbe83de66be41f2b2U, 0xbe1622cbbc998c1cU,
  0x3e9fa7593e44743cU, 0x3ecb0c5d3e09f6b6U, 0x3f7d56353e375b90U, 0x3f05e537bdaa02c4U,
  0x3eb0fadbbd74628fU, 0x3cf925a1bdc84b42U, 0xbdb623b2be45c65dU, 0x3d8a4ebebe30997eU,
  0x3d66f711bdd37791U, 0xbe5f18403d257610U, 0xbdd27d0c3e377f12U, 0x3e11628b3f04aab4U,
  0xbe0f5ff9be0b326fU, 0x3db54eafbed39ef9U, 0x3e24d7d43e7dc0afU, 0x3f78cb98bdf0854bU,
  0x3f26ccef3da836ecU, 0x3f21d27bbd55e130U, 0x3bac305dbec1f48bU, 0xbe008cd8bee03776U,
  0xbe6e568fbe805fb8U, 0xbe242b3bbda9dbecU, 0x3e8b28c73e5206aaU, 0x3e99f6e83e886adcU,
  0x3ede861b3ed3fa27U, 0x3ea64da83f1acbd4U, 0xbdf8d2023d7cd275U, 0x3e957af8be193bb3U,
  0x3e466786be90e1e7U, 0x3e8789663e3769bcU, 0x3d8d68a83ec721c0U, 0x3e2ff8523d426770U,
  0xbe45aeaebede0acbU, 0xbed0104abec538c8U, 0x3c9a285cbe978ff8U, 0xbdbcb8f8beb56944U,
  0x3eb33d76bdd75302U, 0x3f1771433ea68bffU, 0x3ec22f743eb6ca6dU, 0x3e9e8ca03f666d39U,
  0xbe43fb48be61ba05U, 0xbe3d91dabec2d1aeU, 0x3e59bb7dbcf27039U, 0xbe25ce9e3e33463dU,
  0x3dd56c7e3ebbbc9eU, 0x3cb2204d3e3e5c7fU, 0x3da768f9be526de3U, 0xbe47fc15bdbbe8f8U,
  0xbd2d4bdf3cc10e00U, 0x3dfa9bf6bd57d538U, 0x3f07962a3da6f04fU, 0x3dca77cd3eaf9cb8U,
  0xbee1a1ca3ed05b55U, 0x3eb0e5473f3f7174U, 0xbe64ad4d3e36e095U, 0xbefa587abf147366U,
  0x3df27525be99b7bdU, 0x3f3480603e5f69c5U, 0x3f3ccb2b3ea96c65U, 0x3f3bb22c3ebeb44bU,
  0x3e5062d93da4e8a0U, 0xbc8417fa3e499897U, 0x3e3af7b23e94261cU, 0x3eba560d3e97ac7aU,
  0x3e0f99d13e6621dcU, 0xbea710453dfe6af8U, 0xbf443f4e3e47573dU, 0x3dbf0a4e3f76bde7U,
  0xbe4cda26bef59e08U, 0x3e747229bee0aa56U, 0x3c3fbda3bdc9aebcU, 0x3f0f598c3e01e67fU,
  0x3f6526fa3dc2fa42U, 0x3f1609043edc8174U, 0x3f3d1f523ec1db65U, 0x3eb5bf7b3e5bedc7U,
  0x3e8ec1463ee70755U, 0xbd2fa5d73ea9a9e4U, 0x3d1d9b763eaa415eU, 0xbe4e77413ee24f08U,
  0xbf0639cc3e8faa20U, 0xbe3c6ce83ed6c536U, 0xbdd13dc13e220e06U, 0xbe68898cbdc80e6eU,
  0x3ef430adbe563bd4U, 0x3f755918be80802bU, 0x3f3f77cfbe28b315U, 0x3f0bf13c3da7b95eU,
  0x3ee569ef3e1b649cU, 0x3eada9e13b3b8c3aU, 0x3e62f32c3e5dfa33U, 0x3deeeb953e85686fU,
  0xbe084f833deaf831U, 0xbe8c39193e5ad66fU, 0xbeec0cb8be545a51U, 0xbee22b7bbecb4be8U,
  0x3c9724973ee2ca1dU, 0xbe9587283dcd4739U, 0x3f27ce47bea5bf49U, 0x3e6a2323be9ad39dU,
  0xbd9abb68be4a36bbU, 0xbdc8fbc93b693605U, 0xbcd451b43e012883U, 0x3dc6e929bd8bccceU,
  0xbbbe6d15bd49ce1aU, 0xbe8e69283e120eadU, 0xbe86a7533ea09ddeU, 0x3e1960fc3eea8d13U,
  0x3e93426c3e828aecU, 0xbeb0e6febe9af39fU, 0xbdcd9aa1bd8a35f6U, 0xbd88fcdd3e0f70d7U,
  0x3e24b369be6382c3U, 0xbe98101fbe8af148U, 0xbd6f2f653d7593b4U, 0xbf11c299bbbc8cb6U,
  0xbeca8760bdda80f4U, 0xbe8c8135bd54c0d8U, 0xbec3c9303d463264U, 0xbef6f10a3e2262acU,
  0xbe25030d3edea655U, 0x3d4072153f63ebf9U, 0x3dfa95573f469c34U, 0x3d894eef3ab332aaU,
  0xbcf2d0dcbdfa6b84U, 0xbdc9d4793e30db6fU, 0x3eba69bf3d8efbe9U, 0x3e989840be582bc2U,
  0x3db1e7cabe7f3445U, 0x3e4b263ebf286f8bU, 0xbda3545cbf30991dU, 0x3d240723befc9ca9U,
  0xbe72ad11bf07c221U, 0xbe69464fbeebbdcfU, 0xbe52ce77bf21a617U, 0xbe7ac81fbe1a5b86U,
  0xbec56028bf2c54aaU, 0xbc8893aebe29404eU, 0x3d3797c9be7e0560U, 0xbdfef134be5b9c56U,
  0xbd222dcfbe8a04aaU, 0xbd894f79be254a53U, 0xbe123cc8be8722aaU, 0xbce8ab21beb39057U,
  0xbdf8b3d13e72f898U, 0x3bea92293ebd0f27U, 0x3e7c79033e28fd49U, 0xbc3d5b7fbe8c6ae1U,
  0xbda0e9a8bdf301a5U, 0xbd425dfdbeae897fU, 0xbb9aac78bd91ea08U, 0x3c3624e1bdd6b513U,
  0xbe0f2469be9308d2U, 0xbe2295e8be8be4a0U, 0x3ec50bb9be5ab8f3U, 0x3e6a00643f01b9c3U,
  0x3e6825393f1e8a96U, 0x3f0915ca3f1a7145U, 0x3e9838c23f52aabdU, 0x3d47fc303f04d131U,
  0x3db054e43ea32a83U, 0xbe2f68c4bec101daU, 0xbf01e2f6be5fdfffU, 0x3d59064cbece96f4U,
  0x3f00780b3ca433bfU, 0x3f094a143e38fd22U, 0xbdc221bbbe90228bU, 0x3e2a6ffb3e653e1eU,
  0x3d6f318f3eefe615U, 0x3d7537f33f26f210U, 0xbd4b69843f0b4d8eU, 0xbed6271c3f597c4cU,
  0x3e53c1c33f44da52U, 0xbf0726293ef37990U, 0xbe931a293ea75850U, 0xbdc2e5d93dcb6e96U,
  0xbea49a3cbe9d5d80U, 0xbe93918dbf206c2fU, 0xbe9831c3bf2238d4U, 0x3e9ddeb43e07c089U,
  0xbdcce5e0befb2fceU, 0x3b634a9a3efab5a0U, 0xbec9000a3eb38be1U, 0xbf2ab07c3eb5e4aeU,
  0xbf59875f3f2d4b39U, 0xbf4b75913f34cbfaU, 0xbef5591e3f0f76bfU, 0x3d99729d3f13a241U,
  0x3e108a553e900706U, 0x3d8cb8323cfac3ceU, 0x3e713b72beaf5f0bU, 0x3eabe76dbed626c0U,
  0xbe9d5799bee0c0d5U, 0xbe9843efbda157c0U, 0xbd0377cebea406d6U, 0x3ebd13903f20ef96U,
  0xbee7861b3ed60e99U, 0xbf98f4f03ebceecdU, 0xbfa688bc3f01967eU, 0xbf18260f3f2ab54aU,
  0xbea203613eee2425U, 0xbce191843efd8e8cU, 0x3e591f5a3ccc2fd7U, 0x3efdc665be2fe6d1U,
  0x3ef6c816bea0265aU, 0x3ebe81efbeb3278aU, 0x3ec5c0fcbc6e6e05U, 0xbeeec022bb8fd958U,
  0xbd3f3787becd7c42U, 0xbeffe7e63df44b71U, 0xbed3fba73f32a51dU, 0xbf7636bb3ead735bU,
  0xbf3953ed3e63cc20U, 0xbf17d1743e903814U, 0xbedd953c3c2cdf1eU, 0xbef710053e13de00U,
  0xbd5f6d51be002da4U, 0x3f2cb3b1b7fc91a0U, 0x3eee3add3d52ea72U, 0x3dd420db3eb1b81dU,
  0x3ec104243f5447a3U, 0x3e1969cc3f09dcadU, 0xbdb80bb2bf38484eU, 0xbee1e863beb00996U,
  0xbf1c08f5bd752dabU, 0xbf7700a5be121f17U, 0xbf855cc03c86dc6eU, 0xbf660bafbe4ace02U,
  0xbf6164543ddef4bdU, 0xbc911a5ebd867b62U, 0x3d1782a2be364528U, 0x3e114d1c3c9c4d98U,
  0x3e376331bdc44f09U, 0xbf130a34bbaee5c4U, 0xbef63aec3d941c45U, 0x3ef487373e57aec6U,
  0x3e3c0348beccc8d6U, 0x3ec42b67beb2e599U, 0xbf4af16dbef6901bU, 0xbf950174bebf0251U,
  0xbf518187bec9b5eaU, 0xbf3f6fe5be24f0f6U, 0xbf02b50c3eab31b6U, 0x3f089a853eb0c1e3U,
  0x3ddd96b73dbdbd8fU, 0xbe104bb6be51e55eU, 0xbebcb180beb36b8aU, 0xbf69949cbea86662U,
  0xbf630671bdd84423U, 0xbdba52e63e888520U, 0x3c9c554e3f1cef8aU, 0x3e98bca33f13da35U,
  0x3d7efe1d3e3f41bdU, 0x3e90c5ddbe436752U, 0xbf15eb97bdf143feU, 0xbef7ff913e0b5db3U,
  0xbe8849763eef534dU, 0x3f146ae83e662885U, 0xbc82ff8fbd486412U, 0xbe698f80be60559cU,
  0xbf0b2a7dbe60e8e2U, 0xbef0a3f3bd9a5f7eU, 0xbe9c137a3e36121eU, 0x3daa559b3f0ec2b5U,
  0xbdb74fd5bddb1438U, 0x3f339a9f3f25fbc9U, 0xbd1eeb763eddec62U, 0x3ef2f772be26e66bU,
  0x3ed44f7abe91b668U, 0x3eb3097c3d1df67bU, 0xbe22ae973e99884eU, 0xbdb282923db9affbU,
  0x3e29d3693d62ad39U, 0x3d951c4dbc3bb494U, 0xbe4ff1ec3df9fa21U, 0xbe636c2c3d96e81fU,
  0x3dd0fde93ee6c4c8U, 0x3ea68a413f139f40U, 0x3e00de8bbcc9d181U, 0x3e8782e73eb2b931U,
  0x3e67daac3e81bd46U, 0x3e923daf3e6d2052U, 0x3ee305403e226d06U, 0x3e9dc001bd971d36U,
  0xbecdda18bcfccbd2U, 0xbcf6bf7e3e0e4959U, 0x3e0b288c3ed5b07aU, 0x3c464b403ee54fecU,
  0x3e29cdd23f034a5fU, 0x3e40e15e3f0f4f21U, 0xbc94d4543e9bc878U, 0xbda2d1333e1eac4bU,
  0xbd016b423f8cbce0U, 0x3de6d81a3f5a2c60U, 0x3e2ee9a63ee73dfdU, 0xbca663293e0ec1c4U,
  0xbe515a4d3ddebecdU, 0xbf24c7473e2d42b3U, 0xbe962e09bd23cf8dU, 0xbd8215713e107badU,
  0xbd89bac33e364aceU, 0x3e26e21d3ebe6b00U, 0x3e9a8f723ed7fdd6U, 0x3db5cc8f3ea46d3eU,
  0x3ed280483f320767U, 0x3cc43edb3d1dbe09U, 0xbe0062623e0bc2c1U, 0x3ce08465be6069fbU,
  0xbdbff1e3bdf83b7dU, 0xbf710ae93eae5025U, 0xbf5fc55abd353229U, 0xbf9566913ed88d01U,
  0xbf24d2a13e815dceU, 0xbf38a5be3db897a1U, 0xbe7951913dbd886cU, 0x3e8bb4343eb5ffeaU,
  0x3e04f7923f204368U, 0x3ca141e43eb99ccdU, 0xbe3173a83ee9abfaU, 0x3d647e603d843c16U,
  0xbe0a802ebde2873fU, 0xbe089644bef46a60U, 0xbf13198fbe612bedU, 0xbf23dbf23f06d0b3U,
  0xbee85daa3e7c565bU, 0xbf1c73d43e7ba219U, 0xbe930e283e984363U, 0xbe45744a3e800aa5U,
  0x3d3e74de3e1c89dfU, 0xbe5ca72e3eb65381U, 0x3ea98c4f3eb2707bU, 0x3d2740e8beee7e5aU,
  0x3e1acf69bee07ee4U, 0x3d72b4e9be9440acU, 0x3dbc00a3bc2ce0c4U, 0x3da20a163e40cab5U,
  0x3e48b5893deea7f2U, 0x3e0029783d7025d5U, 0x3e3e2ad63e8720a7U, 0x3e1d3dfa3cec19c0U,
  0x3e1c43c1be8035c8U, 0x3dd4bc23bedaadffU, 0xbdd93058bf168501U, 0x3e13a989be022987U,
  0x3e0a73ef3dec0fc5U, 0x3d0726943ce6f2b5U, 0x3e1ae4583e11e8f5U, 0xbd46b0463e3d127dU,
  0x3e05e8fd3e095b58U, 0x3e2fd53bbeb05e9dU, 0x3e6d13693e965650U, 0xbda265243d692c32U,
  0xbd0724a13e0e9e6fU, 0xbefa541b3ee66bfbU, 0xbd0ea9453d8d1ccaU, 0x3e6e94b13d46ec1fU,
  0xbe538b87bcc583edU, 0xbda6813bbdeb5311U, 0xbdcf7cb7be83531bU, 0x3e8dccbc3d751c95U,
  0xbea2f3033cf16447U, 0x3e0425a33e91dc34U, 0x3daf5c5f3dd70303U, 0x3e87aa633f29cd00U,
  0x3e6e5d293ee84b35U, 0x3e8a4f683f170a40U, 0x3e7d74113eaf9985U, 0xbdbb35c63eac5caeU,
  0x3e742f803e87650cU, 0x3e7282e4bdcdb5f1U, 0x3e62b7f9bef58ac9U, 0xbdee044ebef39032U,
  0x3dc6a19abeaf42f0U, 0x3eabbb03be7a8f8bU, 0x3e8d6e113e601621U, 0x3e7a960bbe122619U,
  0x3e7834713f1924c2U, 0x3eaee9993f8241b6U, 0x3f9339e93f1f8bfeU, 0x3f4927ce3eeb7a5aU,
  0x3dcddd563f0787ceU, 0xbdb7bd083e9481f1U, 0xbc59836c3d0f1cb7U, 0x3e9dfb63be9925e1U,
  0x3f36d873be5e7a97U, 0x3f3f88aebe877e44U, 0x3f22d502be9644bcU, 0x3f148567bc2af0acU,
  0x3c455221bcf2a3abU, 0x3cb903e4bdfd5d9fU, 0x3e515e2d3f661dedU, 0x3e014cc23f981dfeU,
  0xbeddc1033f1d176cU, 0xbe256c9e3f0890c5U, 0xbe893ae93ebd25b9U, 0xbe9d51173d73aafdU,
  0xbeb8a30bbdb9c185U, 0x3ed27583bdad6ec2U, 0x3f82fb34bde6b6f4U, 0x3f62572bbe9027dfU,
  0x3f5fdc74bebe69c2U, 0x3f05cca8bdd6d0a6U, 0xbd68c719bee582b2U, 0xbe0f9382beaafe7fU,
  0x3e1b59673e774a36U, 0x3dcced4e3f3e35c2U, 0xbf2c92043de5ed94U, 0xbe452552bdd7c4c4U,
  0x3daa5972bd2b4a72U, 0xbecde583bd82dcacU, 0xbeb07cdebe9002f5U, 0x3e58d4abbe73262bU,
  0x3f64ad90be260916U, 0x3f0f4ec33d25f20fU, 0x3f161b49bdd4973fU, 0x3f5dffa4be5558b1U,
  0xbdff73c8bf447c92U, 0xbef8f115bf3050d3U, 0x3de537043ee309d5U, 0xbbc638473f12c95bU,
  0xbf220598be0d5ac4U, 0x3e206f8fbe93a6beU, 0x3e9d66b53e5d7bccU, 0x3e2d226c3e5fdea0U,
  0x3e98fdd9be381e2eU, 0x3ee814973ce37e8bU, 0x3f29b3a23ef492b5U, 0x3ec4b1703edd8b45U,
  0xbef8b12b3e286313U, 0x3d9d4d52beaf9147U, 0xbeff510ebf79a8fbU, 0xbf9b7a7abf9da543U,
  0xbccb1b683edbf937U, 0xbc3bfbfb3f0440a6U, 0xbed58d9dbe82a44cU, 0x3ee51179be793f32U,
  0x3eccc5a13c842974U, 0x3eb00b903dd60f77U, 0x3cb5cc5abde2575eU, 0x3e3e1c983ebb76b3U,
  0x3e86d53d3f0d9f3aU, 0x3de2b9743f038e39U, 0xbe203c603ec659a0U, 0x3dd66cba3e6419dfU,
  0xbe0f9769bf264df2U, 0xbe52ff30bf52b878U, 0x3cfcf42d3ebaf730U, 0x3de64e883d446719U,
  0x3c5a931bbe67c2b0U, 0xbf0dfcdcbe2771a1U, 0x3de03558bdd72aa0U, 0x3e086826bbfd06fdU,
  0xbe060cca3e55be98U, 0x3e63202e3ea01263U, 0x3df4be763e505d4eU, 0x3dfad9f83d92c9b6U,
  0xbe36e358be08c48bU, 0x3d995676bd8e268bU, 0x3d59df7fbe7e9299U, 0xbe8606f3bf82d5b1U,
  0x3daca8f23f0f65e4U, 0xbea2eb35beb93f29U, 0xbeedbceabf0e8078U, 0xbf54254dbe55dab9U,
  0xbedaa778bdad18b2U, 0xbcbbcd03bda8d6c4U, 0x3d5367953df07fd1U, 0x3e2696d43e39f325U,
  0x3e6f09c73db1e4bdU, 0x3e18774a3d8f7b4eU, 0xbce2aec03dd22723U, 0xbe214facbe2c882fU,
  0xbec07809beebb49aU, 0xbe4ad425be94fef9U, 0x3c7fe05cbd0dde44U, 0x3e69d92bbe24fe31U,
  0xbeee16a1bee170feU, 0xbeba6b37bee383f8U, 0xbd0018c6beaed40dU, 0x3e013764beaf1c01U,
  0x3da01be6be74c340U, 0x3e98e27bbe4d47c7U, 0x3e3c6ec7bea97a56U, 0x3d8fcf6bbe27ad8aU,
  0x3e1cd622be6d65fcU, 0xbe56d745bf05de8cU, 0xbf40585ebf481231U, 0x3e827b7a3dd3217aU,
  0x3df3e2693d4b5061U, 0x3d5b9ec1bf2d0453U, 0xbf35191abe7e4843U, 0xbea6d3e7bdeebd40U,
  0x3ed75003be27bf82U, 0x3ec53635be71cce0U, 0x3f3ba528bdd285d4U, 0x3f015dc33d1e02f3U,
  0x3ed148e43de2d749U, 0x3e23e99ebe16d934U, 0xbd18e974be8fa80dU, 0xbebaae54bf095629U,
  0xbf38b6c5bf069a80U, 0x3ec2d0ce3f17309aU, 0xbd1511e63e36881aU, 0x3e165df03f172c73U,
  0x3eca69613f395a28U, 0x3fa3ab8d3ec01eeeU, 0x3f7d3039bbea8feeU, 0x3f8047a6be62157fU,
  0x3f966f85be713623U, 0x3f85da3abe1bc58eU, 0x3f1cba19be07ddffU, 0x3e441775be61e3dbU,
  0xbd977f9ebe1b37d4U, 0x3d532305bf078cdaU, 0xbf1b2908bf008904U, 0xbd29f87a3da3128cU,
  0xbd5080963da17999U, 0x3c3b524f3ee13dceU, 0x3ee2b3a53f0c5cf3U, 0x3efa77013f5e7b73U,
  0x3f1070363f7d36afU, 0x3f5c52b03e72e912U, 0x3f1a379ebea1befeU, 0x3ecfd621be8d5084U,
  0x3eb26037beaf3a6fU, 0x3e60a003beeb8016U, 0xbd3179debe89426bU, 0xbd8cda79bedcc044U,
  0xbed13179bf4f4a6bU, 0xbdc18ba63dba3ec2U, 0x3f5d0091bd9342f9U, 0xbf8086f1bf24025eU,
  0x3ea0b8a53ef9f927U, 0x3f1a7d20bd18e452U, 0x3e2fcfd7bf116cd3U, 0x3ebe91563f4aa3e3U,
  0xbee74e57bd75cf1cU, 0x3e8573ff3ed5a199U, 0xbde38eab3c76cb93U, 0x3e8f0e433e78334eU,
  0x3f05e91fbe2c9e38U, 0x3ea24835be2683f6U, 0xbf177aef3f1134fcU, 0xbfaf49a6bedbf715U,
  0x3e11905e3e6fc7afU, 0x3d13ceefbf08d535U, 0xbedb561e3e3953adU, 0xbe0f4b25be9d60e5U,
  0x3dea83293f07a990U, 0x3f31f6debe4c194dU, 0xbeb2b464bf916af1U, 0x3e5e60a03f51399dU,
  0xbfaee677bed9adceU, 0x3e32ff223eaba8ebU, 0x3cb1cc77bee0b24cU, 0x3d1adaa23d021305U,
  0x3dc08cc0bdbc7658U, 0x3f329cdd3ea20e13U, 0xbe13e88ebeee0483U, 0xbf479f0fbf8387b0U,
  0x3ec69e6ebe43f9d6U, 0xbe2c77a73f3456a7U, 0xbe9c0e023eb36fc6U, 0xbf7877903ed1e24aU,
  0xbe85c89abe83ed41U, 0xbdee1579bd9b400cU, 0xbe1074383edcbd65U, 0x3e67694bbee9f898U,
  0xbf2b84983e6d47a9U, 0x3e74718f3efac629U, 0x3eef2c22be5d8902U, 0x3eb799d3bef36a8bU,
  0xbfcd136fbdd6320cU, 0x3e1f0fcc3e750849U, 0xbf305406bd86e2ebU, 0x3eb2dd5ebec28236U,
  0x3ee9288fbd858c53U, 0x3ef54283bf8a618bU, 0x3dfb26c0be428dadU, 0xbea5cd3c3eabde47U,
  0x3ef079c4beaffbbaU, 0xbe7fb6eebea242daU, 0xbe894c6fbdbc6763U, 0x3f33f6b53f8a1fa5U,
  0xbe02e21a3e891b94U, 0xbf9bf6ebbe2bd13fU, 0xbfa1b2c8be6bcc74U, 0x3ebec42c3f4c2404U,
  0x3e571f89bda92917U, 0x3f27e333be196941U, 0xbf8d5e36be6e7da4U, 0x3e51435a3c11e1e4U,
  0x3e9e380fbd059edcU, 0xbdc4567fbf6621beU, 0x3e5776ee3d961df7U, 0xbf204d52befa3cebU,
  0xbc96e6da3f7d243aU, 0xbce4b213bd6adfe9U, 0x3f1c2dfabec8f3eaU, 0xbf13e872be8a2be6U,
  0x3ce694ff3ca3757dU, 0x3f04ff13be362717U, 0xbf0d9999be738870U, 0x3f3727923e7f5b33U,
  0xbf06ca83bf28348cU, 0xbe96a24dbefbfaf8U, 0x3d997ad03e15632dU, 0x3e2f6c15bedd2749U,
  0x3e0c2898bdc6e0caU, 0xbd57f9223e7a9ab5U, 0x3f01a2563e4bfa4cU, 0xbea0a84a3f288c0eU,
  0xbec2ccc0bf3dbe76U, 0xbf92b8ecbe9f6e2fU, 0x3e123b363ddc7fd5U, 0x3e1d4760bda61cfeU,
  0x3e6679393ea905bdU, 0x3dabef4abeb97d21U, 0x3f402784bf0ad9f2U, 0x3f16faea3ea2c1e5U,
  0x3e82621ebe2ee2abU, 0x3e27d9c2bf0a3039U, 0xbdcfcd81bf4ae30cU,
};


ai_handle g_mnist_weights_table[1 + 2] = {
  AI_HANDLE_PTR(AI_MAGIC_MARKER),
  AI_HANDLE_PTR(s_mnist_weights_array_u64),
  AI_HANDLE_PTR(AI_MAGIC_MARKER),
};

